#pragma once
#include <cstdint>

const unsigned int g_emg_model_len = 13460;
alignas(16) const unsigned char g_emg_model[] = {
  0x1c, 0x00, 0x00, 0x00, 0x54, 0x46, 0x4c, 0x33, 0x14, 0x00, 0x20, 0x00,
  0x1c, 0x00, 0x18, 0x00, 0x14, 0x00, 0x10, 0x00, 0x0c, 0x00, 0x00, 0x00,
  0x08, 0x00, 0x04, 0x00, 0x14, 0x00, 0x00, 0x00, 0x1c, 0x00, 0x00, 0x00,
  0x94, 0x00, 0x00, 0x00, 0xec, 0x00, 0x00, 0x00, 0x14, 0x2e, 0x00, 0x00,
  0x24, 0x2e, 0x00, 0x00, 0x30, 0x34, 0x00, 0x00, 0x03, 0x00, 0x00, 0x00,
  0x01, 0x00, 0x00, 0x00, 0x10, 0x00, 0x00, 0x00, 0x00, 0x00, 0x0a, 0x00,
  0x10, 0x00, 0x0c, 0x00, 0x08, 0x00, 0x04, 0x00, 0x0a, 0x00, 0x00, 0x00,
  0x0c, 0x00, 0x00, 0x00, 0x1c, 0x00, 0x00, 0x00, 0x3c, 0x00, 0x00, 0x00,
  0x0f, 0x00, 0x00, 0x00, 0x73, 0x65, 0x72, 0x76, 0x69, 0x6e, 0x67, 0x5f,
  0x64, 0x65, 0x66, 0x61, 0x75, 0x6c, 0x74, 0x00, 0x01, 0x00, 0x00, 0x00,
  0x04, 0x00, 0x00, 0x00, 0x94, 0xff, 0xff, 0xff, 0x0a, 0x00, 0x00, 0x00,
  0x04, 0x00, 0x00, 0x00, 0x08, 0x00, 0x00, 0x00, 0x6f, 0x75, 0x74, 0x70,
  0x75, 0x74, 0x5f, 0x30, 0x00, 0x00, 0x00, 0x00, 0x01, 0x00, 0x00, 0x00,
  0x04, 0x00, 0x00, 0x00, 0xd2, 0xd1, 0xff, 0xff, 0x04, 0x00, 0x00, 0x00,
  0x0b, 0x00, 0x00, 0x00, 0x69, 0x6e, 0x70, 0x75, 0x74, 0x5f, 0x6c, 0x61,
  0x79, 0x65, 0x72, 0x00, 0x02, 0x00, 0x00, 0x00, 0x34, 0x00, 0x00, 0x00,
  0x04, 0x00, 0x00, 0x00, 0xdc, 0xff, 0xff, 0xff, 0x0d, 0x00, 0x00, 0x00,
  0x04, 0x00, 0x00, 0x00, 0x13, 0x00, 0x00, 0x00, 0x43, 0x4f, 0x4e, 0x56,
  0x45, 0x52, 0x53, 0x49, 0x4f, 0x4e, 0x5f, 0x4d, 0x45, 0x54, 0x41, 0x44,
  0x41, 0x54, 0x41, 0x00, 0x08, 0x00, 0x0c, 0x00, 0x08, 0x00, 0x04, 0x00,
  0x08, 0x00, 0x00, 0x00, 0x0c, 0x00, 0x00, 0x00, 0x04, 0x00, 0x00, 0x00,
  0x13, 0x00, 0x00, 0x00, 0x6d, 0x69, 0x6e, 0x5f, 0x72, 0x75, 0x6e, 0x74,
  0x69, 0x6d, 0x65, 0x5f, 0x76, 0x65, 0x72, 0x73, 0x69, 0x6f, 0x6e, 0x00,
  0x0e, 0x00, 0x00, 0x00, 0x24, 0x2d, 0x00, 0x00, 0x1c, 0x2d, 0x00, 0x00,
  0xac, 0x2c, 0x00, 0x00, 0x74, 0x2c, 0x00, 0x00, 0xa4, 0x28, 0x00, 0x00,
  0x94, 0x16, 0x00, 0x00, 0x84, 0x01, 0x00, 0x00, 0xb4, 0x00, 0x00, 0x00,
  0xac, 0x00, 0x00, 0x00, 0xa4, 0x00, 0x00, 0x00, 0x9c, 0x00, 0x00, 0x00,
  0x94, 0x00, 0x00, 0x00, 0x74, 0x00, 0x00, 0x00, 0x04, 0x00, 0x00, 0x00,
  0x82, 0xd2, 0xff, 0xff, 0x04, 0x00, 0x00, 0x00, 0x60, 0x00, 0x00, 0x00,
  0x10, 0x00, 0x00, 0x00, 0x00, 0x00, 0x00, 0x00, 0x08, 0x00, 0x0e, 0x00,
  0x08, 0x00, 0x04, 0x00, 0x08, 0x00, 0x00, 0x00, 0x10, 0x00, 0x00, 0x00,
  0x24, 0x00, 0x00, 0x00, 0x00, 0x00, 0x06, 0x00, 0x08, 0x00, 0x04, 0x00,
  0x06, 0x00, 0x00, 0x00, 0x04, 0x00, 0x00, 0x00, 0x00, 0x00, 0x00, 0x00,
  0x0c, 0x00, 0x18, 0x00, 0x14, 0x00, 0x10, 0x00, 0x0c, 0x00, 0x04, 0x00,
  0x0c, 0x00, 0x00, 0x00, 0xc7, 0x59, 0x05, 0x7f, 0xda, 0x57, 0xcb, 0x61,
  0x02, 0x00, 0x00, 0x00, 0x02, 0x00, 0x00, 0x00, 0x04, 0x00, 0x00, 0x00,
  0x06, 0x00, 0x00, 0x00, 0x32, 0x2e, 0x32, 0x31, 0x2e, 0x30, 0x00, 0x00,
  0xee, 0xd2, 0xff, 0xff, 0x04, 0x00, 0x00, 0x00, 0x10, 0x00, 0x00, 0x00,
  0x31, 0x2e, 0x35, 0x2e, 0x30, 0x00, 0x00, 0x00, 0x00, 0x00, 0x00, 0x00,
  0x00, 0x00, 0x00, 0x00, 0xac, 0xcd, 0xff, 0xff, 0xb0, 0xcd, 0xff, 0xff,
  0xb4, 0xcd, 0xff, 0xff, 0xb8, 0xcd, 0xff, 0xff, 0x1a, 0xd3, 0xff, 0xff,
  0x04, 0x00, 0x00, 0x00, 0xc0, 0x00, 0x00, 0x00, 0x73, 0x56, 0xe8, 0xbe,
  0x25, 0x39, 0x73, 0xbe, 0x3d, 0x80, 0x83, 0xbf, 0xc7, 0xd4, 0xc8, 0xbd,
  0x40, 0x8a, 0x60, 0xbe, 0x1a, 0x14, 0x8d, 0xbe, 0xdd, 0xb7, 0x1b, 0xbf,
  0x16, 0x14, 0x1d, 0xbf, 0xf4, 0x07, 0x95, 0xbe, 0x20, 0x38, 0xb4, 0xbe,
  0x3d, 0xa6, 0xd3, 0xbe, 0xb7, 0x6f, 0x5f, 0x3e, 0x44, 0x28, 0x80, 0xbf,
  0xc6, 0x6b, 0xc9, 0xbe, 0x49, 0x3a, 0x5c, 0xbf, 0x97, 0xdb, 0x5b, 0xbe,
  0x6e, 0xf9, 0xc2, 0x3d, 0x03, 0xa5, 0xf9, 0xbd, 0x1b, 0xa9, 0x10, 0xbf,
  0x95, 0xfa, 0x28, 0xbe, 0x64, 0x7b, 0x2f, 0xbe, 0xdb, 0xa7, 0x99, 0x3d,
  0x89, 0x9d, 0x54, 0xbe, 0xd1, 0xea, 0xc7, 0xbe, 0xaa, 0x62, 0x94, 0xbe,
  0xd9, 0xfd, 0xdb, 0xbe, 0xe2, 0xeb, 0xc6, 0xbe, 0x92, 0x17, 0x99, 0xbe,
  0x26, 0x5b, 0xbd, 0xbe, 0x67, 0xf6, 0x1e, 0xbf, 0xfc, 0x85, 0x0c, 0xbf,
  0x39, 0x3e, 0x03, 0x3c, 0xab, 0xdc, 0x28, 0x3d, 0x96, 0x82, 0x8f, 0xbe,
  0x6a, 0x74, 0xf1, 0xbe, 0xe9, 0x1a, 0x13, 0xbf, 0xb1, 0xeb, 0x8a, 0xbd,
  0x9f, 0x55, 0x05, 0x3e, 0xd5, 0x38, 0x4a, 0xbd, 0xe0, 0xbb, 0x7b, 0xbd,
  0x92, 0xa9, 0x77, 0x3d, 0x80, 0x9a, 0x3d, 0x3d, 0x58, 0x19, 0xd8, 0xbe,
  0x66, 0xdf, 0xe6, 0x3d, 0x08, 0x21, 0xc9, 0xbe, 0x0a, 0x51, 0xfc, 0xbc,
  0x61, 0x9d, 0x93, 0xbd, 0x88, 0x53, 0x2b, 0xbe, 0xe6, 0xd3, 0xff, 0xff,
  0x04, 0x00, 0x00, 0x00, 0x00, 0x15, 0x00, 0x00, 0xb2, 0xca, 0x21, 0xbc,
  0xea, 0x7c, 0x95, 0xbe, 0x42, 0x9d, 0x85, 0xbe, 0x35, 0x6b, 0x65, 0x3e,
  0x66, 0x17, 0x58, 0x3e, 0xa2, 0x39, 0x73, 0xbe, 0x4c, 0xba, 0xdb, 0xbe,
  0x80, 0x6b, 0x14, 0x3d, 0x90, 0xd1, 0x63, 0xbf, 0x93, 0x20, 0x84, 0xbd,
  0x61, 0x50, 0xba, 0x3e, 0x00, 0x44, 0xee, 0xbc, 0x36, 0x1b, 0xc8, 0xbd,
  0xdc, 0xa8, 0xe7, 0xbe, 0xe6, 0x7c, 0xc4, 0x3d, 0x38, 0x0f, 0x56, 0xbd,
  0x90, 0x28, 0x03, 0xbe, 0x81, 0xd5, 0x81, 0xbd, 0x47, 0x81, 0x12, 0xbe,
  0xa0, 0x2a, 0x8c, 0x3d, 0xcb, 0xc5, 0xc9, 0x3d, 0x2f, 0xc7, 0x43, 0x3d,
  0xe9, 0x66, 0xc3, 0x3e, 0xc4, 0xed, 0x4f, 0xbd, 0x54, 0xe5, 0xfa, 0xbc,
  0xb2, 0x24, 0xa3, 0x3d, 0x24, 0x62, 0x88, 0xbd, 0x16, 0xc2, 0xaf, 0x3e,
  0x63, 0x71, 0x79, 0x3e, 0x5b, 0x48, 0x37, 0xbe, 0x75, 0xe1, 0x48, 0x3f,
  0xff, 0x17, 0x6d, 0xbe, 0xbd, 0xa0, 0x52, 0xbe, 0xa9, 0xad, 0x0f, 0xbc,
  0x15, 0x9e, 0x06, 0x3f, 0x10, 0x4f, 0x36, 0xbe, 0x36, 0x9c, 0xd4, 0xbd,
  0x1e, 0x82, 0xc8, 0x3d, 0xfc, 0x03, 0x4a, 0x3d, 0x79, 0x23, 0x69, 0xbd,
  0xe8, 0xc3, 0x88, 0x3e, 0x23, 0x03, 0x20, 0x3e, 0xf2, 0x0a, 0x8a, 0x3e,
  0x12, 0x0f, 0x19, 0xbd, 0xe7, 0xa4, 0x2f, 0x3f, 0x54, 0xec, 0x64, 0xbe,
  0x61, 0xde, 0xe3, 0xbd, 0x28, 0x45, 0x5a, 0xbe, 0x4e, 0xec, 0xb1, 0x3e,
  0x28, 0x55, 0x82, 0xbc, 0xe4, 0x22, 0xdc, 0x3e, 0x81, 0x0c, 0x00, 0x3e,
  0x27, 0x6d, 0x1c, 0xbe, 0xbb, 0xae, 0x72, 0xbd, 0x88, 0x35, 0xf4, 0x3d,
  0x9f, 0x7e, 0x83, 0xbd, 0xc3, 0x2f, 0x24, 0x3e, 0x52, 0xdf, 0xe2, 0x3c,
  0x90, 0xbc, 0x29, 0xbe, 0x9c, 0xac, 0xcf, 0x3e, 0x66, 0x72, 0x97, 0xbe,
  0xd8, 0xca, 0x69, 0x3e, 0xb3, 0xbf, 0x5c, 0xbe, 0x76, 0x91, 0x24, 0xbd,
  0x3f, 0x5b, 0x29, 0x3d, 0x7a, 0x24, 0xae, 0xbe, 0x19, 0x15, 0x8f, 0x3d,
  0xdd, 0x4f, 0x52, 0xbe, 0xc8, 0xbc, 0xaf, 0x3e, 0xea, 0x71, 0xba, 0x3d,
  0x68, 0x5a, 0x15, 0xbe, 0xfa, 0x9b, 0x51, 0xbe, 0xa4, 0x9a, 0xd4, 0x3e,
  0xa2, 0x87, 0x55, 0xbe, 0x8f, 0xcd, 0x04, 0xbd, 0x33, 0x5f, 0x8f, 0x3e,
  0xd4, 0xe9, 0x2f, 0x3e, 0x2e, 0x70, 0xd0, 0xbd, 0x67, 0xf8, 0x15, 0x3e,
  0xa9, 0x5c, 0xc8, 0xbd, 0xbc, 0xb1, 0x04, 0xbd, 0x23, 0xc1, 0xa0, 0x3c,
  0xf7, 0x80, 0x99, 0x3d, 0x58, 0x61, 0x96, 0x3e, 0x2b, 0xee, 0x7c, 0x3d,
  0x1f, 0xc8, 0x5e, 0xbe, 0x6c, 0x7e, 0x1d, 0xbe, 0x06, 0x29, 0x29, 0x3e,
  0x89, 0x8c, 0xd1, 0xbd, 0x37, 0x54, 0xfa, 0xbd, 0xb3, 0x5e, 0x0f, 0x3e,
  0xa8, 0xf9, 0x56, 0xbc, 0xee, 0x4b, 0x1e, 0x3e, 0x98, 0xae, 0xe5, 0xbe,
  0x8d, 0x86, 0x03, 0x3b, 0xb2, 0x07, 0x6b, 0x3e, 0x43, 0x09, 0x31, 0xbe,
  0xb9, 0x41, 0x40, 0x3e, 0x88, 0x88, 0xae, 0x3d, 0xfe, 0xa4, 0xb9, 0xbe,
  0x99, 0x17, 0x25, 0xbe, 0x50, 0xf8, 0x6c, 0x3c, 0xfd, 0x7d, 0x8f, 0xbb,
  0xd0, 0x79, 0xed, 0x3c, 0x10, 0x2a, 0xdd, 0x3d, 0x37, 0x96, 0x56, 0xbe,
  0x4f, 0xa3, 0x7d, 0xbf, 0x2a, 0xde, 0xae, 0xbe, 0x6f, 0xd3, 0xa4, 0x3c,
  0xd5, 0xf1, 0x33, 0x3e, 0xb0, 0xd9, 0x05, 0x3d, 0x12, 0xd8, 0x99, 0xbe,
  0x1a, 0xbf, 0x2c, 0x3e, 0x07, 0x0f, 0x2e, 0x3f, 0x3e, 0xe5, 0x97, 0xbe,
  0x0f, 0xae, 0x98, 0xbe, 0xee, 0x47, 0xe3, 0xbd, 0x64, 0x5f, 0x19, 0x3e,
  0xa7, 0xf8, 0x92, 0x3e, 0x8f, 0xeb, 0x21, 0xbe, 0x8b, 0xde, 0x4f, 0xbf,
  0x9e, 0xd4, 0x6f, 0xbe, 0x60, 0x93, 0x7c, 0xbe, 0xfb, 0x26, 0xa0, 0x3e,
  0x71, 0x31, 0xf4, 0xbd, 0xfd, 0xdc, 0x2d, 0xbf, 0x6e, 0xde, 0x7a, 0xbd,
  0xfd, 0x92, 0x74, 0x3e, 0x43, 0x46, 0xb2, 0xbd, 0x91, 0x3e, 0xa7, 0xbe,
  0xe3, 0xd2, 0x03, 0x3e, 0x3b, 0x84, 0x48, 0xbd, 0xc4, 0x91, 0x09, 0xbd,
  0xd9, 0x05, 0x44, 0x3b, 0x47, 0xfc, 0x7e, 0x3d, 0xe0, 0xed, 0x17, 0xbe,
  0xff, 0xc5, 0x4e, 0x3e, 0x7e, 0xfb, 0x2d, 0x3c, 0xaf, 0x7b, 0x89, 0x3d,
  0x5d, 0xd3, 0xb1, 0xbd, 0xac, 0x20, 0x12, 0x3e, 0xb5, 0xce, 0x5b, 0xbf,
  0xa0, 0xa4, 0x8f, 0x3d, 0x97, 0xae, 0xb6, 0x3e, 0x7a, 0x9c, 0xa7, 0xbd,
  0x0c, 0x9e, 0xe4, 0xbd, 0xaa, 0x47, 0x64, 0xbf, 0x30, 0xd9, 0xc9, 0x3d,
  0x4b, 0xf9, 0xa5, 0x3d, 0xc5, 0x96, 0x05, 0xbf, 0x84, 0x18, 0xdf, 0x3d,
  0xe0, 0x91, 0x12, 0xbe, 0x30, 0xf4, 0x15, 0x3e, 0xb8, 0xb8, 0xa9, 0xbd,
  0x6e, 0xba, 0x59, 0x3d, 0x71, 0x7b, 0x77, 0x3c, 0x35, 0x3b, 0x0f, 0x3e,
  0x34, 0x8f, 0x24, 0x3e, 0x32, 0x11, 0xdf, 0x3d, 0xaf, 0xbb, 0x26, 0xbe,
  0xd4, 0xc1, 0xcf, 0xbd, 0x9c, 0x4b, 0xe7, 0x3d, 0x4f, 0xd3, 0xee, 0x3e,
  0x65, 0xd6, 0x9e, 0x3e, 0xbb, 0x07, 0x47, 0x3d, 0xba, 0x34, 0x3d, 0xbe,
  0x44, 0x1d, 0x3a, 0x3d, 0x03, 0x7d, 0x90, 0x3e, 0x71, 0x57, 0xb1, 0xbd,
  0xca, 0x63, 0xdc, 0xbe, 0x69, 0x00, 0x81, 0x3f, 0xd9, 0xc3, 0x93, 0xbe,
  0x91, 0x58, 0xad, 0x3e, 0x89, 0xef, 0x89, 0x3e, 0x13, 0x27, 0xfb, 0xbe,
  0x30, 0x11, 0xdd, 0xbd, 0x63, 0xb2, 0x2f, 0x3e, 0x61, 0xb9, 0x30, 0xbd,
  0x22, 0xd0, 0x87, 0x3c, 0xf7, 0xc1, 0x81, 0x3e, 0xe1, 0x1e, 0x80, 0xbe,
  0xcb, 0xe3, 0x35, 0xbe, 0xe9, 0x0a, 0xb7, 0xbd, 0x23, 0x33, 0x3a, 0x3d,
  0xf3, 0x7d, 0x94, 0x3e, 0xb8, 0x06, 0x93, 0x3e, 0x26, 0xc0, 0x63, 0x3d,
  0x8c, 0x3b, 0x5b, 0xbd, 0xf5, 0x6c, 0xb7, 0x3c, 0xac, 0x60, 0x45, 0xbe,
  0xa8, 0x66, 0xac, 0x3e, 0x3a, 0xfd, 0xcb, 0xbd, 0xd5, 0x50, 0x8a, 0x3d,
  0x72, 0x10, 0x4d, 0xbe, 0xa3, 0x21, 0x69, 0x3e, 0x44, 0x54, 0xdb, 0xbc,
  0xad, 0x45, 0x0e, 0xbd, 0xc1, 0x3c, 0x13, 0xbd, 0x86, 0x31, 0x0b, 0x3e,
  0xfa, 0xa7, 0x7a, 0x3b, 0x56, 0x02, 0x72, 0x3d, 0x82, 0x38, 0xe9, 0x3b,
  0x83, 0x21, 0x9c, 0x3e, 0xe2, 0xed, 0x82, 0x3d, 0xb1, 0x69, 0x28, 0x3e,
  0xb4, 0x49, 0x55, 0x3e, 0xed, 0x58, 0x17, 0x3e, 0xad, 0x40, 0xd2, 0xbd,
  0x75, 0x00, 0xa1, 0x3b, 0xb4, 0x91, 0xc8, 0x3e, 0x95, 0x81, 0xf6, 0x3d,
  0xc4, 0xfa, 0x09, 0xbe, 0xab, 0x54, 0x32, 0x3f, 0x9f, 0x09, 0x69, 0x3e,
  0x58, 0xe6, 0x2a, 0xbd, 0xe2, 0x26, 0x45, 0x3d, 0x37, 0x18, 0x65, 0x3e,
  0xe8, 0xad, 0x01, 0x3c, 0xda, 0x1f, 0x97, 0xbe, 0xca, 0x09, 0xc0, 0x3e,
  0xa8, 0xbf, 0xfd, 0xbd, 0x9a, 0x00, 0xe7, 0x3c, 0x87, 0xe3, 0xaf, 0x3b,
  0x03, 0x71, 0x41, 0xbf, 0x81, 0xa1, 0x8e, 0x3e, 0x5b, 0x55, 0x04, 0x3e,
  0xdf, 0x73, 0xdc, 0x3d, 0x55, 0xcb, 0x8e, 0x3e, 0x9b, 0xa5, 0x12, 0xbe,
  0xe1, 0x00, 0xc5, 0xbe, 0x78, 0x8c, 0xa3, 0x3e, 0x9f, 0x70, 0x36, 0x3d,
  0xed, 0x7f, 0x53, 0xbe, 0x9b, 0xb8, 0x58, 0x3e, 0x65, 0xc8, 0x09, 0x3e,
  0x84, 0x16, 0xfb, 0x3b, 0x3b, 0x52, 0x90, 0xbd, 0xee, 0xe4, 0xa0, 0xbe,
  0xde, 0x97, 0xc8, 0xbd, 0xaa, 0xde, 0x2e, 0xbf, 0x90, 0x95, 0xff, 0xbe,
  0xd2, 0xfc, 0xd5, 0xbd, 0xfe, 0x39, 0xab, 0xbd, 0x65, 0x63, 0x93, 0x3e,
  0x9d, 0xab, 0x4b, 0xbf, 0xba, 0x91, 0x40, 0x3e, 0x34, 0xdc, 0x0a, 0x3f,
  0x6a, 0x0b, 0x58, 0x3e, 0xda, 0xa5, 0x3d, 0xbd, 0x6c, 0xc1, 0x44, 0xbe,
  0x47, 0x7f, 0x50, 0xbd, 0x7d, 0x34, 0x4c, 0x3e, 0x11, 0x9a, 0x2b, 0xbc,
  0x67, 0x97, 0x30, 0xbe, 0x57, 0xf0, 0x95, 0xbd, 0x27, 0x9d, 0x0f, 0xbe,
  0xaa, 0x42, 0x2f, 0xbe, 0xef, 0x0b, 0x06, 0xbe, 0x51, 0xe0, 0x17, 0x3d,
  0x57, 0x97, 0x08, 0xbe, 0x97, 0xee, 0x2b, 0xbe, 0x22, 0x90, 0xa4, 0xbd,
  0x3f, 0xcc, 0x68, 0x3e, 0x5f, 0x1f, 0x91, 0x3e, 0x11, 0xe2, 0x82, 0xbe,
  0xb5, 0x6d, 0xde, 0x3d, 0xa8, 0xec, 0xed, 0x3e, 0xa7, 0x59, 0x33, 0xbe,
  0x2c, 0x39, 0x16, 0xbe, 0xf4, 0xad, 0xb1, 0xbe, 0x5e, 0x5d, 0xe8, 0x3d,
  0x34, 0x48, 0xa8, 0x3e, 0x40, 0x70, 0x1e, 0xbd, 0x9b, 0xab, 0x9e, 0x3e,
  0x30, 0x58, 0x1c, 0x3e, 0x9e, 0x82, 0x6f, 0xbd, 0x65, 0x3d, 0xd3, 0xbe,
  0x30, 0xf5, 0x41, 0xbd, 0x09, 0x24, 0x1d, 0x3d, 0xa6, 0xa2, 0x57, 0x3e,
  0x89, 0xb3, 0x91, 0x3e, 0xe7, 0xac, 0xd9, 0xbe, 0xfe, 0xaf, 0xf3, 0xbb,
  0xf5, 0xfb, 0xa0, 0xbe, 0xc6, 0x01, 0x14, 0xbe, 0x65, 0x34, 0x9e, 0x3d,
  0x13, 0xbf, 0x22, 0xbf, 0x16, 0xfd, 0x7e, 0xbc, 0x30, 0x1a, 0x14, 0x3f,
  0x24, 0x28, 0x9e, 0x3d, 0x48, 0x77, 0xa4, 0xbd, 0xd4, 0x47, 0xa0, 0xbd,
  0x54, 0x9e, 0xaf, 0xbd, 0x9c, 0x97, 0x03, 0x3f, 0x4c, 0xb1, 0x06, 0xbe,
  0x87, 0x17, 0xc1, 0xbe, 0x27, 0x9b, 0xdf, 0xbd, 0xf8, 0x35, 0x13, 0x3f,
  0x1e, 0xd2, 0x46, 0x3e, 0xef, 0xcd, 0x41, 0xbe, 0xc9, 0x7b, 0x38, 0xbf,
  0x8b, 0xf6, 0xf5, 0xbd, 0x0e, 0xee, 0x83, 0x3e, 0x75, 0x8e, 0x98, 0xbd,
  0xba, 0x77, 0xc4, 0x3d, 0x4f, 0xa4, 0x27, 0x3e, 0x6f, 0x2b, 0xf8, 0x3d,
  0x39, 0xc7, 0x95, 0xbd, 0x16, 0x1d, 0x11, 0xbe, 0x5a, 0x48, 0x6d, 0xbe,
  0x6e, 0xe0, 0x3b, 0x3e, 0xaf, 0x32, 0x30, 0xbe, 0x9b, 0x43, 0xef, 0x3d,
  0x48, 0x01, 0x1d, 0x3e, 0x61, 0x1c, 0xa9, 0x3e, 0x2b, 0xcc, 0xfc, 0xbc,
  0x3b, 0xc5, 0xb0, 0xbe, 0xcb, 0x5a, 0xc9, 0xbe, 0x4c, 0xbc, 0x85, 0x3d,
  0x20, 0x21, 0x1b, 0x3e, 0x1d, 0xaa, 0xae, 0x3c, 0x04, 0x1b, 0xe3, 0xbe,
  0xee, 0x56, 0xcd, 0xbd, 0x26, 0x5b, 0x82, 0xbe, 0x3b, 0x3e, 0x21, 0xbe,
  0x36, 0x0e, 0x1f, 0x3e, 0x94, 0x72, 0xa8, 0x3d, 0xa8, 0x79, 0xa3, 0xbd,
  0x42, 0xb7, 0x98, 0xbe, 0x0b, 0xfc, 0x0d, 0xbe, 0x33, 0xc4, 0x40, 0x3f,
  0x90, 0x1b, 0xd4, 0x3d, 0xfc, 0x58, 0xb2, 0x3e, 0x25, 0xea, 0x51, 0x3e,
  0x62, 0x40, 0x97, 0x3d, 0xb1, 0xb1, 0x5e, 0x3e, 0x6c, 0x68, 0x2f, 0xbe,
  0xb8, 0xcb, 0xbf, 0x3a, 0x5d, 0x07, 0x4c, 0xbd, 0x80, 0x27, 0x11, 0x3e,
  0xa8, 0x56, 0x4e, 0x3e, 0x4a, 0x33, 0x14, 0x3d, 0x5e, 0xca, 0x73, 0xbc,
  0x29, 0x9e, 0xa6, 0xbe, 0xcb, 0x0a, 0xb5, 0x3e, 0x71, 0x87, 0x1d, 0xbe,
  0x99, 0xd9, 0x14, 0x3d, 0x94, 0x73, 0x95, 0xbc, 0xaf, 0xcf, 0xb7, 0x3e,
  0xb3, 0x52, 0x03, 0x3f, 0xa6, 0x36, 0x31, 0xbe, 0x26, 0xf7, 0x00, 0xbe,
  0x24, 0xe4, 0x9f, 0xbe, 0x69, 0xcd, 0x0e, 0x3e, 0x74, 0x37, 0x78, 0xbb,
  0xca, 0x85, 0x1f, 0x3e, 0x91, 0x08, 0x2a, 0xbe, 0xcc, 0x65, 0xe4, 0xbd,
  0x59, 0x03, 0x36, 0x3d, 0x62, 0x0b, 0x4d, 0xbd, 0x51, 0xba, 0xb3, 0x3d,
  0xe2, 0x78, 0x93, 0x3d, 0xb4, 0x14, 0x77, 0xbc, 0x4d, 0x91, 0xd8, 0xbd,
  0xa3, 0xf2, 0xc8, 0x3d, 0x4e, 0x55, 0x70, 0xbe, 0x9a, 0xac, 0x03, 0x3d,
  0x4d, 0xca, 0x1f, 0x3e, 0x6a, 0x57, 0xdc, 0x3d, 0x06, 0x38, 0x58, 0xbe,
  0xc1, 0x63, 0x8a, 0x3c, 0x0c, 0xe5, 0x4a, 0xbd, 0xef, 0x1b, 0xdd, 0xbe,
  0xf1, 0xc7, 0x6f, 0x3f, 0x40, 0xf9, 0xfe, 0x3d, 0x4b, 0x08, 0x3f, 0xbe,
  0x99, 0xa0, 0x0d, 0x3e, 0x42, 0xe1, 0xbc, 0x3e, 0x2c, 0x39, 0xc4, 0x3d,
  0xa1, 0x38, 0x30, 0xbc, 0x6f, 0xa5, 0xd3, 0xbe, 0xe0, 0x03, 0x23, 0x3e,
  0xcd, 0xc1, 0x4b, 0x3d, 0x93, 0x63, 0x51, 0xbd, 0x41, 0x9c, 0x8c, 0x3e,
  0xf4, 0xca, 0xcc, 0x3d, 0x98, 0x64, 0xba, 0xbe, 0x1f, 0xaf, 0x1d, 0x3d,
  0x05, 0x07, 0xe5, 0x3e, 0xc1, 0xb5, 0x33, 0xbe, 0x4c, 0x49, 0xef, 0x3c,
  0xa4, 0x22, 0x49, 0x3e, 0xdb, 0x57, 0x90, 0xbe, 0xb3, 0x8d, 0xad, 0xbc,
  0xca, 0xa8, 0x01, 0x3d, 0x97, 0xd9, 0x69, 0x3e, 0xe3, 0xa0, 0x11, 0x3e,
  0x2c, 0xd8, 0x81, 0x3e, 0xbb, 0xf8, 0x25, 0xbf, 0x60, 0x9f, 0xb4, 0xbd,
  0x64, 0x9c, 0xeb, 0xbe, 0x34, 0xfb, 0xf9, 0x3e, 0x3d, 0xff, 0x12, 0xbf,
  0x82, 0x45, 0xeb, 0x3d, 0x96, 0xa9, 0x73, 0xbd, 0xdb, 0x75, 0x2e, 0xbe,
  0x3c, 0xfa, 0x08, 0xbe, 0xc2, 0xb4, 0x11, 0x3f, 0x64, 0x79, 0x31, 0xbe,
  0x35, 0xca, 0xbc, 0xbd, 0x44, 0x7f, 0x3a, 0xbd, 0x79, 0xcd, 0x60, 0x3e,
  0xa8, 0x0c, 0xc1, 0x3e, 0x06, 0xf9, 0x1a, 0x3e, 0x23, 0x49, 0x8c, 0x3e,
  0x1e, 0xd4, 0x15, 0x3e, 0x97, 0xca, 0xbb, 0xbe, 0x48, 0x42, 0x38, 0xbe,
  0xb3, 0xc3, 0x42, 0x3d, 0x88, 0x36, 0x84, 0x3e, 0xfb, 0xa4, 0x02, 0x3c,
  0xd4, 0x51, 0x69, 0xbe, 0xee, 0xb2, 0xb3, 0xbe, 0x61, 0x2f, 0xde, 0xbb,
  0x40, 0xfb, 0xa1, 0x3e, 0x56, 0x39, 0x14, 0xbe, 0xfa, 0xd6, 0x31, 0xbe,
  0xf7, 0xf4, 0xc1, 0xbd, 0xde, 0xef, 0x02, 0xbd, 0x5c, 0x4d, 0xd2, 0xbe,
  0xc4, 0x38, 0x0e, 0x3e, 0x68, 0x19, 0xac, 0x3c, 0x87, 0xb1, 0xe2, 0x3d,
  0x20, 0x8d, 0x30, 0xbd, 0x14, 0x4a, 0x3d, 0xbe, 0x8a, 0xf0, 0x2c, 0x3e,
  0x67, 0xdd, 0xa1, 0x3f, 0x29, 0x47, 0x10, 0xbf, 0x64, 0x37, 0x22, 0xbe,
  0x7e, 0x79, 0xa8, 0x3e, 0xfb, 0x38, 0x17, 0x3f, 0xa6, 0x23, 0xb8, 0x3c,
  0x1a, 0xb1, 0xb6, 0x3e, 0xe0, 0x91, 0x7e, 0x3e, 0x3a, 0x7e, 0x97, 0xbe,
  0xcb, 0xc4, 0x4c, 0xbc, 0x28, 0x44, 0x4b, 0xbc, 0x93, 0xac, 0xa3, 0xbd,
  0xc9, 0x9a, 0x90, 0x3d, 0x76, 0x83, 0x93, 0xbe, 0x6a, 0x43, 0x9d, 0xbe,
  0xf7, 0x69, 0xc6, 0x3d, 0x10, 0xa8, 0x74, 0xbd, 0x43, 0x45, 0xc1, 0x3d,
  0x53, 0xea, 0x0a, 0xbe, 0x20, 0xe0, 0x49, 0x3d, 0xeb, 0xef, 0xb1, 0x3e,
  0x47, 0xae, 0x84, 0x3e, 0x39, 0x0d, 0x19, 0x3e, 0x5a, 0xd7, 0x21, 0x3e,
  0x56, 0xde, 0x58, 0xbe, 0x54, 0x23, 0x85, 0x3e, 0xa0, 0xb7, 0x24, 0xbe,
  0xc9, 0xe5, 0x0d, 0x3e, 0xf7, 0xb8, 0x9c, 0xbe, 0x79, 0xe4, 0x99, 0x3d,
  0xd6, 0x14, 0xcf, 0x3d, 0x40, 0xb3, 0x3f, 0x3c, 0xd3, 0xc1, 0xca, 0x3c,
  0x8e, 0x3a, 0xb7, 0x3d, 0x44, 0x9e, 0x5c, 0xbf, 0x30, 0xbf, 0x44, 0xbe,
  0x79, 0x4c, 0xe9, 0x3d, 0xae, 0x15, 0x05, 0x3e, 0xf5, 0xde, 0x97, 0xbe,
  0x8e, 0x88, 0x9f, 0xbc, 0x4c, 0x1b, 0x29, 0xbe, 0x76, 0xb0, 0xf4, 0xbe,
  0xc5, 0x70, 0xeb, 0xbd, 0xab, 0xef, 0xaf, 0xbd, 0x22, 0xd6, 0x83, 0xbe,
  0x26, 0xd1, 0x04, 0x3d, 0x81, 0x06, 0x0c, 0x3e, 0x6a, 0xaa, 0xf5, 0x3c,
  0xa9, 0xd1, 0xdb, 0x3e, 0x28, 0x1d, 0x8d, 0xbd, 0x1d, 0xd7, 0x07, 0x3e,
  0xb0, 0xec, 0x52, 0x3e, 0xc6, 0x6f, 0xf3, 0xbd, 0xcb, 0x36, 0x80, 0x3e,
  0x98, 0xcb, 0x83, 0x3e, 0x04, 0xe5, 0xb8, 0x3d, 0x67, 0x03, 0x51, 0xbf,
  0xfc, 0xa1, 0x4e, 0xbe, 0xa9, 0x7a, 0x39, 0x3e, 0xd2, 0xab, 0x6f, 0xbe,
  0xf6, 0x08, 0x9d, 0xbe, 0x15, 0x24, 0x9c, 0xbd, 0x37, 0x6d, 0x9a, 0xbe,
  0x5f, 0xe4, 0x51, 0xbe, 0x6d, 0x62, 0x0c, 0xbe, 0xe5, 0x6b, 0x4a, 0x3d,
  0x02, 0x5f, 0xa2, 0x3c, 0xcc, 0x3c, 0x8c, 0x3d, 0x0f, 0x92, 0x4b, 0x3e,
  0x46, 0x90, 0x5c, 0x3d, 0xc8, 0x0b, 0xf5, 0x3e, 0x10, 0x11, 0x33, 0xbf,
  0x07, 0x50, 0x07, 0xbe, 0x06, 0xdd, 0x7d, 0xbd, 0x1e, 0x60, 0xdd, 0x3e,
  0x9a, 0xe8, 0xb9, 0xbc, 0x09, 0x35, 0x20, 0xbc, 0xe1, 0x75, 0x44, 0xbe,
  0xde, 0x5b, 0x06, 0x3e, 0xaf, 0xad, 0x49, 0xbd, 0xee, 0x49, 0xf9, 0x3d,
  0x67, 0x44, 0x0a, 0x3d, 0x2e, 0x35, 0x6b, 0xbd, 0x81, 0x4d, 0x1e, 0x3f,
  0x00, 0x2c, 0xe0, 0xbb, 0x78, 0x2a, 0x36, 0xbc, 0x0e, 0xbd, 0x53, 0xbd,
  0x5d, 0x62, 0x5a, 0x3d, 0x8d, 0x41, 0x38, 0x3f, 0xc4, 0x60, 0xfc, 0xbd,
  0x1f, 0x87, 0xb5, 0x3e, 0x1a, 0x0d, 0xde, 0x3d, 0x5a, 0x1e, 0xd4, 0x3d,
  0x0a, 0xd7, 0xf7, 0xbd, 0x78, 0xcc, 0xca, 0x3e, 0x6d, 0x61, 0x41, 0xbe,
  0x2a, 0xb0, 0x50, 0x3e, 0x6b, 0x58, 0x8b, 0xbf, 0xc0, 0x43, 0xf5, 0x3e,
  0x6f, 0xcb, 0xaa, 0x3c, 0xd6, 0x6a, 0x2b, 0xbe, 0xce, 0x84, 0x16, 0x3e,
  0x7c, 0xef, 0x2b, 0xbf, 0x4c, 0x7f, 0x8e, 0xbd, 0x49, 0x4f, 0x17, 0x3f,
  0x79, 0xea, 0x37, 0xbd, 0x64, 0x82, 0xaf, 0x3e, 0x37, 0x71, 0x4c, 0x3e,
  0x70, 0x75, 0xea, 0xbd, 0x7d, 0x52, 0xeb, 0x3c, 0x55, 0xde, 0x7d, 0xbd,
  0x97, 0x58, 0x2d, 0xbe, 0xc0, 0xd3, 0x75, 0xbe, 0xba, 0xc5, 0x14, 0xbe,
  0xe8, 0x8e, 0xb1, 0x3e, 0x29, 0x92, 0x82, 0xbe, 0xa0, 0x33, 0xc8, 0x3d,
  0x84, 0xfe, 0xc4, 0xbc, 0x7b, 0xd2, 0xcc, 0xbd, 0xf1, 0x76, 0x23, 0xbe,
  0xc3, 0x0d, 0x5c, 0xbd, 0x40, 0xf5, 0x13, 0x3e, 0x2f, 0x69, 0xd8, 0x3d,
  0x13, 0xa8, 0x95, 0xbe, 0x59, 0x2d, 0x40, 0x3e, 0x16, 0x72, 0x3d, 0xbe,
  0xe1, 0xc3, 0x58, 0xbe, 0xf1, 0x1a, 0x27, 0xbd, 0x7d, 0x24, 0x77, 0x3e,
  0xaf, 0x2d, 0xc1, 0xbe, 0x28, 0x4d, 0xbb, 0x3e, 0xeb, 0xe7, 0x84, 0xbe,
  0x72, 0x84, 0x19, 0x3e, 0xda, 0x58, 0xd7, 0x3c, 0xe5, 0x81, 0x3c, 0xbd,
  0x38, 0x03, 0xf8, 0x3c, 0x9b, 0x2b, 0x6b, 0x3e, 0xb0, 0x88, 0xf3, 0xbd,
  0x85, 0x6e, 0x5c, 0x3e, 0xae, 0x70, 0x3d, 0xbf, 0x9f, 0x5a, 0x6d, 0x3f,
  0x72, 0x9c, 0x72, 0x3d, 0xc7, 0xfa, 0x2d, 0xbe, 0x86, 0xd7, 0xde, 0xbd,
  0x91, 0x36, 0x3a, 0xbf, 0x94, 0x55, 0x17, 0xbd, 0x2b, 0x4a, 0xb1, 0x3e,
  0xd7, 0x39, 0xf3, 0x3d, 0xf2, 0x2f, 0x63, 0x3d, 0xad, 0x72, 0x0f, 0xbe,
  0xcc, 0x97, 0xea, 0x3d, 0x86, 0xdb, 0x0d, 0x3e, 0x0a, 0x50, 0x40, 0xbe,
  0xba, 0x21, 0x6e, 0x3e, 0xde, 0x4b, 0xfd, 0xbe, 0x23, 0xb6, 0xa9, 0xbd,
  0xda, 0x34, 0x6e, 0x3e, 0xe1, 0x3e, 0x05, 0x3e, 0x90, 0x00, 0x19, 0xbe,
  0x48, 0xb2, 0x2a, 0x3e, 0xc6, 0x6b, 0x51, 0xbe, 0xbb, 0x43, 0x06, 0xbf,
  0xbe, 0x19, 0xfc, 0x3c, 0xed, 0x39, 0xf3, 0xbb, 0x85, 0xa1, 0xbf, 0xbd,
  0x6e, 0x15, 0x21, 0xbe, 0xad, 0x58, 0xfc, 0xbd, 0xf1, 0x8f, 0xa3, 0xbe,
  0x06, 0x28, 0x71, 0x3e, 0xd1, 0xf6, 0xe6, 0x3e, 0xb5, 0x81, 0x0b, 0x3e,
  0x72, 0xdb, 0x21, 0xbd, 0x18, 0xef, 0xb2, 0xbd, 0xf2, 0xb9, 0xfb, 0xbd,
  0x2a, 0x05, 0x0f, 0xbf, 0x7c, 0x94, 0xba, 0xbe, 0x3e, 0x17, 0x81, 0x3e,
  0xc9, 0xf2, 0xa6, 0x3e, 0x49, 0x78, 0x06, 0xbe, 0xff, 0xce, 0xa9, 0xbe,
  0x6e, 0xa2, 0x88, 0xbd, 0x20, 0x99, 0x1e, 0xbe, 0xef, 0xd8, 0x88, 0xbe,
  0xb7, 0xc6, 0x73, 0x3e, 0xb4, 0x21, 0x81, 0x3e, 0x02, 0xf7, 0xbf, 0xbd,
  0x6c, 0xc4, 0xb6, 0xbe, 0xc1, 0x2d, 0x86, 0x3e, 0x1e, 0x07, 0x99, 0xbe,
  0xe8, 0xe7, 0x84, 0xbe, 0x75, 0xa6, 0x80, 0xbe, 0x73, 0x91, 0xae, 0xbd,
  0x58, 0x89, 0x95, 0x3c, 0xcc, 0x9b, 0xbb, 0xbe, 0x7c, 0x9a, 0x57, 0x3d,
  0x42, 0x1c, 0x34, 0xbe, 0x8b, 0x60, 0x1b, 0xbe, 0xa9, 0x4e, 0x11, 0x3e,
  0x28, 0x0a, 0x02, 0xbd, 0x5a, 0x76, 0xc4, 0x3d, 0x3c, 0x0e, 0xba, 0xbe,
  0x74, 0x15, 0x7f, 0xbe, 0xcc, 0xab, 0xb6, 0x3e, 0xa1, 0x0c, 0x1d, 0x3e,
  0xb3, 0xa0, 0x0a, 0xbc, 0xec, 0x11, 0x6e, 0xbc, 0x22, 0x20, 0xfb, 0xbe,
  0xbe, 0x17, 0x46, 0x3e, 0x14, 0xcc, 0xe2, 0xbc, 0x06, 0xfb, 0xc8, 0xbe,
  0xb0, 0x9f, 0x01, 0xbf, 0xeb, 0x5b, 0xbe, 0x3e, 0xa6, 0x73, 0x33, 0x3d,
  0x64, 0xc4, 0x86, 0xbd, 0xd8, 0xcd, 0x5a, 0xbf, 0xa2, 0x17, 0x07, 0x3d,
  0x92, 0xd3, 0x1d, 0xbe, 0x06, 0x59, 0xd8, 0xbe, 0xbf, 0x12, 0x9b, 0xbd,
  0xe2, 0x01, 0xea, 0xbc, 0xdc, 0x31, 0x81, 0xbd, 0x94, 0x19, 0x86, 0xbe,
  0xe2, 0x2a, 0x4a, 0xbe, 0x7d, 0x81, 0xfb, 0x3d, 0x79, 0xcc, 0x7f, 0xbe,
  0x59, 0xab, 0x37, 0x3e, 0x94, 0xfb, 0x07, 0x3e, 0xce, 0x12, 0x75, 0x3d,
  0xd1, 0xd1, 0xf9, 0xbe, 0x0c, 0x00, 0x81, 0x3e, 0xc7, 0x63, 0xed, 0x3e,
  0xa3, 0x96, 0x06, 0x3e, 0x1c, 0x9c, 0x6b, 0x3b, 0x26, 0x56, 0xe3, 0xbd,
  0xba, 0x7d, 0x90, 0xbd, 0xcb, 0x95, 0x24, 0xbc, 0x0a, 0x37, 0x17, 0x3e,
  0x74, 0x6c, 0xa6, 0xbe, 0x61, 0x5f, 0xb3, 0x3d, 0x4c, 0xc6, 0x5d, 0x3e,
  0xe5, 0xdd, 0x04, 0xbe, 0x1f, 0x0b, 0xec, 0xbd, 0x46, 0x7d, 0x12, 0x3e,
  0xce, 0x92, 0x63, 0xbe, 0x1e, 0x38, 0x87, 0x3e, 0x0f, 0x92, 0xa3, 0xbe,
  0x50, 0xd6, 0x0a, 0x3d, 0x2f, 0xb0, 0xc8, 0xbd, 0xf0, 0x90, 0xd7, 0x3e,
  0x70, 0x87, 0x00, 0xbf, 0x92, 0xae, 0x84, 0xbe, 0x01, 0xcc, 0x54, 0xbf,
  0x6a, 0x45, 0x03, 0x3c, 0x9a, 0x65, 0x83, 0x3e, 0xcc, 0x9a, 0x03, 0x3e,
  0x68, 0xe3, 0x06, 0x3e, 0x82, 0x65, 0x82, 0xbf, 0x8d, 0x82, 0x0e, 0x3e,
  0x52, 0x6e, 0x01, 0x3f, 0xae, 0x18, 0x5f, 0x3e, 0xf8, 0xc7, 0xc6, 0xbb,
  0x67, 0xc2, 0x87, 0xbe, 0xb5, 0x69, 0x64, 0x3d, 0x3b, 0x90, 0xeb, 0x3d,
  0xc7, 0xdd, 0x70, 0x3d, 0xce, 0xbf, 0x85, 0xbd, 0x6c, 0xed, 0x55, 0xbd,
  0x5a, 0x61, 0x2e, 0x3e, 0x79, 0xd7, 0x15, 0xbe, 0x3a, 0xcc, 0x18, 0xbd,
  0x50, 0x1f, 0x66, 0x3e, 0x33, 0x7b, 0xda, 0xbd, 0xc3, 0x45, 0x34, 0xbf,
  0x99, 0x0d, 0xec, 0x3e, 0xe7, 0xc4, 0x2b, 0x3c, 0xff, 0x3f, 0x10, 0xbe,
  0xe8, 0x07, 0x7c, 0x3e, 0x74, 0x1f, 0xfe, 0xbe, 0x13, 0xba, 0x59, 0x3e,
  0x70, 0x26, 0x21, 0xbe, 0x8a, 0xda, 0xe6, 0xbe, 0x82, 0xe1, 0xd2, 0xbe,
  0xcd, 0xef, 0x93, 0xbc, 0xab, 0xa6, 0x0e, 0xbe, 0x99, 0x03, 0x80, 0xbc,
  0x20, 0x3c, 0xe7, 0x3d, 0xee, 0x75, 0x6e, 0x3e, 0x47, 0x9f, 0xa9, 0xbe,
  0x98, 0x20, 0x68, 0xbd, 0x63, 0xf6, 0x2c, 0xbe, 0x52, 0x2d, 0xd8, 0x3c,
  0x45, 0xf3, 0x80, 0x3e, 0x0e, 0xd5, 0xc8, 0xbd, 0x62, 0xda, 0x0b, 0xbf,
  0x64, 0x3b, 0xb6, 0x3e, 0xef, 0x8e, 0x15, 0xbe, 0xc3, 0xd4, 0x67, 0xbe,
  0x06, 0x73, 0x92, 0x3e, 0xba, 0x1f, 0x38, 0xbe, 0x4f, 0x09, 0xfd, 0x3d,
  0x50, 0xaf, 0x46, 0x3e, 0xed, 0x99, 0xe4, 0xbe, 0x5f, 0x6e, 0x7d, 0xbe,
  0xcc, 0x1c, 0x46, 0x3d, 0x85, 0xf3, 0x3a, 0xbe, 0x25, 0x10, 0xa6, 0x3e,
  0xf3, 0x85, 0xc7, 0x3d, 0x02, 0x25, 0xaf, 0x3e, 0x0a, 0x32, 0xef, 0xbe,
  0x49, 0xb3, 0x84, 0x3c, 0x07, 0xdf, 0x66, 0xbe, 0x42, 0xc6, 0x2f, 0x3e,
  0x5b, 0xc0, 0x55, 0x3e, 0x3d, 0x61, 0x80, 0xbd, 0xbd, 0x9a, 0x2c, 0xbf,
  0x3e, 0xbb, 0xec, 0x3e, 0x54, 0xab, 0x7c, 0x3d, 0xc5, 0x5a, 0x99, 0xbd,
  0xfc, 0xa5, 0xcb, 0x3d, 0xf4, 0x44, 0x7f, 0xbe, 0xe1, 0xc8, 0xae, 0xbd,
  0xf2, 0xd9, 0x90, 0xbe, 0xc9, 0x24, 0xc0, 0x3e, 0x3d, 0x05, 0x63, 0x3c,
  0x91, 0xbb, 0xda, 0xbc, 0x9a, 0xe0, 0x71, 0xbe, 0x1b, 0xfb, 0x9c, 0x3e,
  0x27, 0xe6, 0x27, 0xbe, 0x2c, 0x12, 0xc6, 0x3e, 0x0a, 0x4f, 0x27, 0x3f,
  0xde, 0x37, 0x22, 0xbf, 0xa2, 0x51, 0x18, 0x3d, 0x1d, 0x93, 0x21, 0x3e,
  0x6f, 0x80, 0x00, 0x3f, 0x69, 0x8d, 0x9d, 0x3e, 0xfa, 0x4f, 0x85, 0xbe,
  0x1b, 0x43, 0x00, 0x3f, 0xe0, 0x0e, 0x4a, 0xbe, 0x04, 0xa7, 0x31, 0xbe,
  0xe3, 0xc9, 0xe4, 0xbd, 0xb3, 0xac, 0xc0, 0x3e, 0xe3, 0xc5, 0xb7, 0x3d,
  0x31, 0xd0, 0x7b, 0x3e, 0xf2, 0x5d, 0xa8, 0x3d, 0x69, 0xc6, 0x2a, 0xbb,
  0xd1, 0x9b, 0x90, 0x3d, 0x37, 0xcb, 0x49, 0xbe, 0x7b, 0xaa, 0x45, 0x3d,
  0xfc, 0x83, 0x82, 0xbe, 0x95, 0x8e, 0x42, 0xbe, 0xbb, 0x24, 0x7f, 0x3f,
  0xa8, 0x27, 0xa0, 0xbe, 0x3a, 0x80, 0xe8, 0x3d, 0x1a, 0x59, 0x81, 0xbd,
  0x04, 0x0d, 0x26, 0x3f, 0x6f, 0x8d, 0xf5, 0xbd, 0x92, 0x2d, 0xf2, 0x3e,
  0x87, 0x89, 0x04, 0x3e, 0xc0, 0x5c, 0xaa, 0x3c, 0xe9, 0x65, 0xac, 0xbd,
  0xa2, 0x89, 0x4f, 0x3e, 0x5f, 0xd7, 0x67, 0x3e, 0xa5, 0xf2, 0x1c, 0x3d,
  0x9c, 0xf6, 0x00, 0xbe, 0xd5, 0x6a, 0x23, 0xbf, 0xbd, 0xa5, 0x12, 0x3d,
  0xcf, 0x8c, 0x52, 0x3e, 0xb6, 0xd1, 0x24, 0xbe, 0x32, 0x0d, 0x12, 0xbc,
  0x74, 0xc5, 0x09, 0xbe, 0x55, 0xd8, 0x2a, 0xbe, 0x09, 0x6d, 0x52, 0xbe,
  0xe0, 0x81, 0x4b, 0x3e, 0xa0, 0x97, 0xce, 0x3d, 0xa1, 0x44, 0x9f, 0x3d,
  0xcf, 0x76, 0x26, 0xbe, 0xb2, 0xfd, 0x96, 0xbd, 0x72, 0x92, 0xa0, 0x3e,
  0x8b, 0x17, 0xe1, 0x3c, 0xe8, 0x45, 0x32, 0x3d, 0x92, 0xbb, 0x12, 0xbb,
  0xcc, 0xa9, 0xfe, 0x3c, 0x67, 0x45, 0x26, 0x3e, 0xae, 0xdb, 0x86, 0xbe,
  0xe8, 0x80, 0xa5, 0x3e, 0x4d, 0x8a, 0xe1, 0xbd, 0x41, 0xb3, 0xc8, 0xbd,
  0xe4, 0x5e, 0x44, 0x3d, 0x0e, 0x9d, 0x0a, 0x3e, 0x8a, 0x8e, 0x4e, 0x3e,
  0x95, 0xc3, 0x69, 0x3e, 0x5a, 0x24, 0x8c, 0x3c, 0x7d, 0x67, 0xf8, 0x3d,
  0x70, 0x74, 0x4f, 0x3e, 0xf1, 0xff, 0x10, 0xbe, 0x7a, 0x59, 0x22, 0xbe,
  0xbc, 0xde, 0x09, 0xbd, 0x15, 0x10, 0x88, 0x3e, 0x96, 0xe6, 0x65, 0xbf,
  0x76, 0xd7, 0x2a, 0x3f, 0x92, 0xac, 0x0b, 0x3e, 0xd7, 0x69, 0x15, 0xbd,
  0x6d, 0xd5, 0x20, 0xbe, 0x4d, 0x7d, 0x03, 0xbf, 0x6f, 0xe1, 0xbd, 0xbd,
  0x3d, 0xbb, 0xb5, 0x3e, 0x20, 0x85, 0x8c, 0x3e, 0x90, 0xc3, 0x8f, 0xbe,
  0xc2, 0x81, 0xb6, 0x3c, 0x18, 0x1b, 0x88, 0x3e, 0xb7, 0xa4, 0x19, 0x3e,
  0xb8, 0xd1, 0x6a, 0xbe, 0x4c, 0x28, 0xd2, 0x3e, 0x24, 0xe2, 0xb3, 0x3d,
  0x01, 0xb2, 0xe1, 0x3d, 0xb9, 0x63, 0x2e, 0x3e, 0x1a, 0xaf, 0x3c, 0x3e,
  0x02, 0xa3, 0x01, 0x3f, 0xba, 0xfe, 0x18, 0xbe, 0x1e, 0x29, 0x8a, 0xbf,
  0x4c, 0x17, 0x82, 0xbe, 0xf6, 0x79, 0xef, 0xbd, 0xfb, 0x45, 0xad, 0x3d,
  0x24, 0x3a, 0x36, 0xbd, 0x1f, 0x4a, 0x81, 0xbf, 0x5b, 0xe7, 0xb6, 0x3b,
  0x5c, 0x32, 0x2e, 0x3e, 0x4d, 0x7e, 0xb8, 0xbe, 0x48, 0x6b, 0x93, 0x3e,
  0xea, 0xb6, 0x36, 0x3e, 0xf2, 0x4f, 0x30, 0xbe, 0x29, 0xdf, 0x32, 0x3e,
  0x11, 0x1e, 0x85, 0xbd, 0xe0, 0x15, 0x89, 0xbe, 0x00, 0xda, 0xca, 0xbe,
  0xcd, 0x6e, 0xb5, 0x3e, 0xc3, 0x83, 0x83, 0x3c, 0xf9, 0x1e, 0x99, 0xbd,
  0x90, 0x36, 0xa0, 0xbc, 0x92, 0x5a, 0xdb, 0x3c, 0x95, 0xfd, 0x82, 0x3c,
  0x5c, 0x4f, 0x86, 0x3c, 0xef, 0xd9, 0x55, 0x3e, 0x70, 0x4d, 0xe3, 0xbd,
  0x36, 0x37, 0x41, 0xbd, 0xab, 0x5a, 0xf3, 0xbc, 0x92, 0x39, 0xc6, 0x3c,
  0x63, 0x1c, 0x1e, 0xbf, 0x9c, 0x3b, 0xdd, 0xbe, 0x15, 0xdc, 0x13, 0xbf,
  0x39, 0xb1, 0x6f, 0x3d, 0x20, 0xda, 0x14, 0xbd, 0xa3, 0x41, 0xb6, 0xbe,
  0xb6, 0x33, 0x81, 0x3e, 0x0d, 0x54, 0x67, 0x3e, 0x38, 0x9a, 0xa8, 0xbe,
  0xc2, 0xfa, 0x80, 0x3e, 0xb1, 0x7a, 0x37, 0xbe, 0xae, 0xbd, 0xe8, 0x3d,
  0x1f, 0xdc, 0x88, 0xbe, 0x26, 0xb5, 0xfb, 0x3c, 0xc1, 0x0e, 0xa6, 0xbe,
  0x50, 0x46, 0xd4, 0xbd, 0x00, 0x2f, 0xd2, 0x3d, 0xf1, 0x0c, 0x5b, 0x3d,
  0xd5, 0xfb, 0xeb, 0xbd, 0x8d, 0xb1, 0x82, 0xbe, 0xf4, 0x29, 0x92, 0x3e,
  0x61, 0x85, 0x28, 0xbe, 0x41, 0x2c, 0x5a, 0x3d, 0x5a, 0xd8, 0x61, 0x3e,
  0x12, 0x05, 0xa0, 0xbd, 0x4e, 0x1e, 0x5a, 0xbe, 0x51, 0x42, 0x55, 0x3e,
  0x16, 0xb3, 0x54, 0x3e, 0x38, 0x96, 0xca, 0xbe, 0x0f, 0x9d, 0x4a, 0xbf,
  0x8a, 0x04, 0x93, 0xbe, 0xfd, 0x5c, 0xe8, 0xbd, 0xfd, 0x38, 0x88, 0x3c,
  0x6b, 0xad, 0xe4, 0xbe, 0xf4, 0x8c, 0x52, 0x3e, 0x54, 0x71, 0xc3, 0x3e,
  0x45, 0x69, 0x73, 0x3e, 0xcf, 0x0b, 0x8a, 0xbe, 0xd8, 0x3f, 0x9e, 0xbe,
  0x7b, 0x95, 0x15, 0x3e, 0x35, 0xda, 0x00, 0x3f, 0x77, 0x65, 0x2d, 0xbe,
  0xea, 0x38, 0xc7, 0x3e, 0x68, 0x7d, 0x90, 0xbe, 0x9a, 0xb1, 0xb3, 0xbe,
  0x7f, 0x3e, 0x22, 0xbe, 0xa0, 0xec, 0x8b, 0xbc, 0x75, 0x60, 0x5c, 0x3e,
  0xea, 0x09, 0xe1, 0x3c, 0xb0, 0x8e, 0x33, 0xbf, 0x3f, 0x77, 0x0f, 0xbd,
  0x1a, 0xef, 0x81, 0x3e, 0x8e, 0xd2, 0x01, 0xbe, 0x48, 0xa3, 0x85, 0x3d,
  0x1d, 0x0d, 0xb6, 0xbe, 0xe8, 0x50, 0xf5, 0xbd, 0x0d, 0xe7, 0xf3, 0x3e,
  0x96, 0x88, 0x14, 0x3e, 0x6d, 0x31, 0x25, 0xbe, 0x7b, 0xc6, 0x69, 0x3d,
  0x71, 0xae, 0xc1, 0xbe, 0x96, 0xd6, 0x88, 0x3e, 0x4d, 0x9f, 0xc6, 0x3d,
  0xd5, 0x2d, 0x84, 0xbe, 0x70, 0xb1, 0xd1, 0xbd, 0x14, 0xac, 0x06, 0xbe,
  0xb1, 0x83, 0xc7, 0xbd, 0xb7, 0x76, 0xc9, 0x3d, 0x4a, 0x79, 0x34, 0x3e,
  0xed, 0x4f, 0x98, 0xbd, 0x51, 0xc4, 0x97, 0xbe, 0xb0, 0x5c, 0xef, 0x3e,
  0x1d, 0x58, 0x9a, 0xbd, 0x10, 0x47, 0xe4, 0xbc, 0x95, 0x09, 0x0f, 0x3e,
  0x81, 0x33, 0x55, 0x3e, 0xc4, 0x2c, 0xb5, 0x3d, 0x2f, 0xc9, 0xd2, 0x3e,
  0xa6, 0xb3, 0x2f, 0x3f, 0xf6, 0x9b, 0x5b, 0x3d, 0x44, 0x7f, 0xc0, 0xbd,
  0x2f, 0xaa, 0x25, 0xbd, 0xab, 0xa6, 0xe4, 0x3e, 0xb2, 0x03, 0x85, 0xbe,
  0xe2, 0x6e, 0xbf, 0x3e, 0x84, 0xae, 0x4b, 0x3b, 0xcf, 0x78, 0x40, 0x3e,
  0x2a, 0x55, 0x9f, 0xbd, 0xa2, 0x55, 0xa9, 0x3e, 0x69, 0x3f, 0xb5, 0x3d,
  0x95, 0x14, 0x18, 0x3e, 0xa6, 0xde, 0xb7, 0xbe, 0xcf, 0xd2, 0x55, 0x3f,
  0xbc, 0xdc, 0x89, 0x3d, 0xc8, 0x63, 0x38, 0xbe, 0xe3, 0xff, 0xb9, 0x3d,
  0xea, 0x76, 0xcb, 0xbe, 0xfd, 0xbc, 0x03, 0xbe, 0x05, 0x76, 0x47, 0x3d,
  0xee, 0x8b, 0xf5, 0xbb, 0xbd, 0x5c, 0xae, 0x3e, 0x59, 0x64, 0x16, 0xbe,
  0xba, 0xaf, 0x83, 0xbb, 0x9b, 0xda, 0xe3, 0x3d, 0x95, 0xa7, 0x2b, 0xbe,
  0xf5, 0x54, 0x91, 0xbe, 0xa3, 0x1e, 0xf8, 0x3d, 0xeb, 0xff, 0xc8, 0x3e,
  0xb1, 0x34, 0x0c, 0x3e, 0x75, 0x45, 0x00, 0xbc, 0x44, 0xa7, 0x24, 0xbf,
  0x8e, 0x7e, 0x3f, 0xbe, 0x7a, 0x40, 0x19, 0xbe, 0x70, 0x63, 0x91, 0x3e,
  0xef, 0x48, 0xa6, 0x3e, 0x85, 0xe9, 0x91, 0x3e, 0x80, 0xe6, 0x1d, 0xbe,
  0xbb, 0xe9, 0x88, 0x3e, 0x60, 0x4d, 0x3f, 0xbe, 0xd5, 0x78, 0xee, 0xbe,
  0x98, 0x9c, 0x98, 0x3e, 0x6f, 0xb8, 0x29, 0x3e, 0xf0, 0x2d, 0x6d, 0x3e,
  0x23, 0x66, 0x64, 0x3d, 0xa9, 0x3a, 0x40, 0xbf, 0xb8, 0x60, 0xcc, 0x3d,
  0x94, 0x02, 0x46, 0xbf, 0xb5, 0x3d, 0x63, 0x3f, 0x63, 0x2f, 0x19, 0x3e,
  0x3d, 0xdf, 0x94, 0xbb, 0x16, 0xcf, 0x2f, 0xbe, 0xae, 0xc4, 0x15, 0xbf,
  0xc7, 0x39, 0x84, 0xbc, 0x7c, 0x7e, 0xd6, 0x3d, 0x74, 0x3e, 0x97, 0xbd,
  0x1f, 0x25, 0x06, 0x3c, 0x3a, 0x5c, 0x1f, 0xbd, 0x48, 0xe1, 0x4f, 0x3c,
  0x4f, 0x34, 0x7b, 0x3e, 0x3f, 0xf5, 0x2b, 0xbe, 0xc5, 0x5f, 0x9d, 0x3e,
  0xd4, 0x25, 0x67, 0xbe, 0x92, 0x19, 0xbc, 0xbd, 0x8b, 0x01, 0x70, 0x3e,
  0x1b, 0xf2, 0x25, 0xbe, 0xf8, 0x1c, 0x4d, 0xbd, 0xb4, 0x50, 0x2c, 0x3e,
  0x61, 0x0e, 0x36, 0x3e, 0x3b, 0xd1, 0x6e, 0x3c, 0x33, 0x43, 0xc6, 0x3d,
  0x4b, 0x69, 0xc1, 0xbd, 0xbe, 0x6a, 0xe0, 0xbd, 0x55, 0x2c, 0x71, 0x3d,
  0xad, 0xd3, 0x00, 0xbe, 0x90, 0x22, 0x60, 0xbf, 0xc1, 0x21, 0x9f, 0x3d,
  0x69, 0x08, 0x65, 0xbd, 0x58, 0x8b, 0xac, 0x3e, 0x36, 0x65, 0xd4, 0xbd,
  0x42, 0x28, 0x5b, 0xbf, 0xba, 0x79, 0xe3, 0x3e, 0x69, 0x32, 0x33, 0xbf,
  0xf4, 0xd6, 0x4f, 0xbd, 0x30, 0x6d, 0x49, 0xbe, 0xfc, 0x11, 0xae, 0xbd,
  0x93, 0x50, 0x93, 0xbe, 0x92, 0x6a, 0x1b, 0xbf, 0x13, 0xa8, 0x8d, 0x3d,
  0x4d, 0x3e, 0x57, 0x3e, 0x27, 0xcd, 0xb7, 0xbc, 0x37, 0x08, 0xda, 0x3d,
  0xe2, 0x4c, 0xa5, 0x3d, 0xcb, 0x1a, 0x05, 0xbe, 0x64, 0xf4, 0x9d, 0x3e,
  0xf1, 0x32, 0x05, 0xbd, 0xa3, 0x07, 0x99, 0xbe, 0xb3, 0xfa, 0x26, 0x3f,
  0x60, 0x59, 0x28, 0x3e, 0x68, 0x73, 0x18, 0x3c, 0xae, 0x0d, 0xef, 0xbd,
  0xed, 0xa4, 0x20, 0x3f, 0x88, 0xe7, 0x08, 0xbd, 0xa2, 0x95, 0x03, 0x3e,
  0x6a, 0x89, 0x21, 0xbe, 0xc5, 0x32, 0xaf, 0xbd, 0xaf, 0x0e, 0x5e, 0xbe,
  0x35, 0xd0, 0xd6, 0x3d, 0x3a, 0x5e, 0xd4, 0x3d, 0xae, 0x37, 0x10, 0x3e,
  0x77, 0xd1, 0x36, 0xbd, 0x39, 0x7f, 0x4f, 0xbe, 0x67, 0x7f, 0xea, 0xbe,
  0xcf, 0x64, 0x99, 0x3e, 0xbc, 0x10, 0x92, 0xbe, 0x23, 0xf1, 0xa2, 0x3d,
  0xc6, 0x6b, 0x0e, 0xbd, 0x58, 0xa7, 0x91, 0xbe, 0xdf, 0x3c, 0x30, 0xbe,
  0x09, 0xd0, 0xb3, 0x3e, 0x42, 0x8a, 0x9c, 0x3e, 0xf0, 0xe6, 0xb8, 0xbe,
  0xe6, 0x2a, 0x2a, 0xbf, 0x64, 0x24, 0xc3, 0xbd, 0x21, 0x54, 0x12, 0x3f,
  0x30, 0x41, 0x8c, 0xbd, 0x5c, 0x0c, 0x11, 0xbe, 0x3e, 0x05, 0xd9, 0x3d,
  0x59, 0x4f, 0x27, 0x3e, 0xc8, 0x3e, 0x94, 0xbe, 0x0d, 0x67, 0x5d, 0xbd,
  0xc8, 0x2e, 0x6e, 0xbd, 0xf1, 0xd0, 0x5a, 0x3d, 0x79, 0x71, 0x91, 0xbe,
  0x83, 0x62, 0xff, 0xbc, 0xb9, 0xcc, 0x03, 0x3e, 0x99, 0xe4, 0x84, 0xbd,
  0x98, 0x78, 0x6f, 0xbe, 0x3d, 0xa8, 0x20, 0x3f, 0xb9, 0x31, 0xde, 0x3d,
  0x84, 0x8b, 0x06, 0xbf, 0x88, 0x85, 0x76, 0x3e, 0xb4, 0x09, 0x9c, 0x3d,
  0xe6, 0x61, 0x3a, 0x3f, 0x19, 0x39, 0x1c, 0x3e, 0x09, 0x75, 0x73, 0xbd,
  0xaf, 0x73, 0x5d, 0x3f, 0xeb, 0xdb, 0x3b, 0xbf, 0x02, 0x42, 0x84, 0xbe,
  0xc8, 0x46, 0x14, 0x3d, 0x8c, 0xd9, 0xab, 0x3e, 0x65, 0x20, 0xbf, 0xbd,
  0xb0, 0x59, 0x15, 0xbd, 0xbe, 0xe9, 0xbe, 0xbd, 0x5d, 0x6f, 0x8a, 0x3d,
  0xdb, 0xa0, 0x05, 0xbe, 0xd6, 0xf2, 0x63, 0x3e, 0x11, 0xf3, 0x47, 0x3e,
  0x88, 0x64, 0x44, 0x3d, 0x77, 0xa7, 0xb0, 0x3e, 0xf0, 0x77, 0x63, 0x3d,
  0x98, 0x02, 0xcd, 0xbd, 0x30, 0xbd, 0xd5, 0xbd, 0x94, 0x3d, 0x8d, 0x3d,
  0x15, 0xfd, 0xe8, 0x3e, 0x3e, 0x55, 0x3b, 0x3e, 0xa1, 0x71, 0x06, 0x3f,
  0x0f, 0x12, 0x9a, 0x3d, 0x1b, 0xda, 0x5f, 0xbd, 0x30, 0x64, 0x11, 0x3e,
  0x94, 0x7b, 0xb7, 0xbe, 0x79, 0x46, 0x57, 0x3e, 0x85, 0x4b, 0xff, 0xbd,
  0x18, 0x81, 0x00, 0x3f, 0xfd, 0x76, 0x03, 0xbe, 0x51, 0x91, 0x71, 0xbe,
  0x69, 0x8d, 0x23, 0x3e, 0x12, 0x1a, 0xad, 0xbd, 0xf4, 0x08, 0x00, 0xbe,
  0x10, 0x39, 0x1f, 0x3e, 0x52, 0x0e, 0x73, 0xbf, 0x05, 0x28, 0x0d, 0x3e,
  0x01, 0xfe, 0x1a, 0xbd, 0x01, 0xd3, 0xd6, 0x3d, 0xb4, 0xa4, 0x84, 0xbe,
  0xe8, 0x33, 0x4d, 0xbd, 0xe1, 0x0b, 0x10, 0x3d, 0xbf, 0x27, 0x0a, 0x3d,
  0x9e, 0x75, 0xac, 0xbe, 0xdd, 0x9d, 0xd0, 0xbd, 0xb0, 0x8b, 0x97, 0xbe,
  0x87, 0x31, 0x1e, 0x3d, 0xf8, 0x2d, 0xf2, 0x3d, 0x19, 0x2a, 0x7a, 0x3e,
  0x62, 0x38, 0x7d, 0x3d, 0xdd, 0xb1, 0x3d, 0xbd, 0xd7, 0x32, 0x63, 0xbf,
  0x7f, 0x47, 0xbc, 0xbc, 0x78, 0x87, 0x4f, 0xbe, 0xc1, 0x62, 0xc5, 0x3e,
  0x30, 0x9b, 0x08, 0x3e, 0x7d, 0x91, 0xa3, 0xbc, 0xde, 0xc0, 0x95, 0x3e,
  0xf1, 0x26, 0xa2, 0xbc, 0x7d, 0x21, 0xa9, 0xbd, 0xb9, 0x85, 0x60, 0xbd,
  0xea, 0x26, 0x1c, 0x3e, 0xf2, 0xc5, 0xcb, 0x3d, 0xa2, 0x60, 0x43, 0xbe,
  0x9c, 0x6f, 0xdb, 0xbd, 0xec, 0x9c, 0xe8, 0x3d, 0xed, 0xfd, 0x79, 0xbe,
  0x6a, 0xda, 0x4e, 0x3d, 0x15, 0xfd, 0x50, 0xbe, 0x64, 0xc3, 0xb4, 0xbd,
  0xbe, 0x33, 0xd7, 0x3e, 0x8d, 0x86, 0x69, 0x3c, 0x25, 0x87, 0x3c, 0xbe,
  0x11, 0x2a, 0x0a, 0x3d, 0x35, 0xe8, 0x78, 0x3d, 0xea, 0xc9, 0x9b, 0x3e,
  0xbf, 0xe6, 0x29, 0x3e, 0xa8, 0x9d, 0x55, 0xbf, 0xad, 0x9d, 0x66, 0x3c,
  0x7d, 0x98, 0xd3, 0x3e, 0x91, 0xe0, 0xa1, 0x3d, 0x71, 0xe8, 0x8e, 0xbe,
  0xd8, 0x7c, 0x55, 0xbf, 0x7b, 0xdb, 0x28, 0x3e, 0x44, 0x87, 0x8a, 0x3e,
  0xaa, 0x7d, 0xb7, 0xbd, 0x0c, 0x21, 0x45, 0x3c, 0xe8, 0xe8, 0xef, 0x3d,
  0x6e, 0x7c, 0x2e, 0xbe, 0x58, 0x50, 0xa8, 0x3e, 0x5b, 0x21, 0x11, 0x3d,
  0x20, 0xb0, 0xf5, 0xbb, 0xf4, 0x7f, 0xf9, 0xbd, 0xc6, 0x7d, 0xc8, 0x3d,
  0xbb, 0x7b, 0x86, 0x3c, 0x81, 0x41, 0x93, 0xbd, 0x58, 0x88, 0x38, 0xbd,
  0xc4, 0x22, 0x24, 0x3e, 0xb7, 0xa7, 0x16, 0xbf, 0xb6, 0xf7, 0x67, 0xbe,
  0xb8, 0x80, 0xbd, 0xbc, 0x96, 0x3c, 0x48, 0xbe, 0x6d, 0xc2, 0x47, 0x3d,
  0xa3, 0xa3, 0xd0, 0xbe, 0xce, 0x82, 0x0e, 0xbd, 0x8b, 0xce, 0x6e, 0xbe,
  0xb5, 0x0f, 0x20, 0x3c, 0x54, 0xe6, 0xe6, 0xbc, 0xa1, 0x83, 0x74, 0x3e,
  0xa0, 0xdb, 0x25, 0xbe, 0x1f, 0xa1, 0x04, 0xbf, 0xae, 0x60, 0xa8, 0xbd,
  0xba, 0xe7, 0x44, 0xbf, 0x9c, 0x1c, 0x87, 0xbe, 0xf0, 0x1c, 0xb9, 0xbc,
  0x20, 0x2d, 0x6b, 0x3e, 0xa8, 0x82, 0x6e, 0xbe, 0x05, 0x56, 0x67, 0xbf,
  0xad, 0x03, 0xdb, 0xbd, 0xe7, 0xb7, 0x4a, 0xbe, 0x00, 0xb6, 0x96, 0x3d,
  0x40, 0x70, 0x38, 0x3e, 0x7f, 0x85, 0xb1, 0x3d, 0xb5, 0x77, 0x22, 0x3c,
  0xc2, 0x4b, 0xcb, 0x3d, 0x05, 0xc9, 0x33, 0x3d, 0x34, 0x8b, 0xdd, 0x3d,
  0x43, 0x10, 0x6b, 0x3e, 0xfd, 0x79, 0xf8, 0x3d, 0x88, 0x27, 0x40, 0x3e,
  0x96, 0x40, 0x31, 0x3e, 0x47, 0xce, 0x9c, 0x3e, 0xf7, 0x6e, 0x88, 0xbe,
  0x85, 0xc1, 0xd3, 0x3d, 0xf1, 0x18, 0xc1, 0xbe, 0xf3, 0xe9, 0x6b, 0xbc,
  0x85, 0x2e, 0x25, 0x3d, 0x40, 0x32, 0xae, 0xbe, 0x38, 0x1e, 0x0f, 0xbf,
  0x25, 0x50, 0x3c, 0x3e, 0x1b, 0xec, 0xdd, 0xbd, 0x71, 0x0e, 0xd0, 0x3d,
  0x34, 0x99, 0xe2, 0x3c, 0x62, 0xad, 0xcf, 0xbd, 0x36, 0x62, 0xc9, 0xbd,
  0x12, 0xa5, 0x63, 0x3e, 0x7b, 0xa4, 0xb0, 0xbd, 0xa4, 0xfd, 0x41, 0xbd,
  0x52, 0x57, 0xc7, 0x3d, 0x5f, 0xf8, 0x15, 0xbe, 0x6d, 0x76, 0xb2, 0x3c,
  0x5d, 0x1a, 0x2c, 0xbd, 0xa9, 0x78, 0x2f, 0x3e, 0xe0, 0x74, 0x2a, 0xbe,
  0x1f, 0x43, 0xf4, 0xbd, 0x7b, 0x27, 0x27, 0xbf, 0x00, 0x24, 0x87, 0xbe,
  0x2b, 0xbb, 0xde, 0x3d, 0x7a, 0x34, 0x39, 0xbe, 0x7b, 0xb1, 0x5c, 0xbe,
  0x18, 0xfd, 0xee, 0xbd, 0xc4, 0xf7, 0x86, 0x3b, 0xa8, 0x88, 0xb1, 0xbb,
  0x7e, 0x63, 0x00, 0x3f, 0x81, 0xd2, 0x30, 0x3e, 0x67, 0xb6, 0x29, 0xbd,
  0xb7, 0x30, 0xda, 0xbe, 0x6c, 0xb1, 0x21, 0xbe, 0x97, 0x70, 0x84, 0xbe,
  0x7c, 0x5a, 0x93, 0x3e, 0x8b, 0xac, 0x4c, 0xbd, 0xfa, 0xa6, 0x87, 0x3e,
  0x5e, 0x9e, 0x0a, 0xbe, 0xac, 0x58, 0x0d, 0x3f, 0x40, 0x99, 0xa0, 0x3d,
  0x43, 0x81, 0xeb, 0xbe, 0xa4, 0xe1, 0x53, 0x3e, 0x94, 0x8c, 0xd8, 0x3c,
  0xd6, 0xe9, 0x5d, 0xbd, 0x5b, 0xad, 0x40, 0xbd, 0xb4, 0x67, 0x9a, 0xbb,
  0x21, 0xda, 0x72, 0x3e, 0xf7, 0xd2, 0x5a, 0x3d, 0x1e, 0xdb, 0x97, 0x3e,
  0x30, 0x37, 0x41, 0x3d, 0xb3, 0x23, 0x23, 0xbe, 0x22, 0x94, 0x11, 0x3d,
  0xdc, 0x01, 0x99, 0x3d, 0xaf, 0x8a, 0xe7, 0x3c, 0xbb, 0x76, 0x7a, 0x3e,
  0xde, 0xcb, 0xcc, 0x3e, 0xe7, 0x71, 0x51, 0xbf, 0xae, 0x20, 0xa5, 0x3e,
  0xc6, 0x97, 0x9f, 0xbe, 0x83, 0xcc, 0x35, 0x3f, 0xe8, 0x9b, 0x43, 0xbd,
  0xa3, 0xf9, 0x8b, 0xbe, 0xda, 0x8a, 0x2a, 0x3b, 0xcd, 0xb3, 0xbd, 0xbd,
  0xaa, 0x1c, 0x49, 0x3e, 0x50, 0x0e, 0x2a, 0xbe, 0x8b, 0xbe, 0x58, 0x3e,
  0x07, 0x0f, 0xcd, 0x3d, 0xa7, 0xda, 0x05, 0x3e, 0xd1, 0x57, 0x18, 0xbe,
  0xa2, 0xd8, 0xd9, 0x3d, 0xdf, 0x59, 0x69, 0xbd, 0x63, 0xc3, 0xd2, 0xbd,
  0xe5, 0xdb, 0xc3, 0xbd, 0x13, 0x01, 0xec, 0x3e, 0xf8, 0x39, 0x23, 0x3e,
  0xdd, 0xef, 0x4e, 0xbe, 0xf0, 0xac, 0x05, 0xbf, 0x27, 0xb2, 0x9f, 0x3e,
  0x19, 0x16, 0x09, 0x3f, 0xe5, 0x58, 0xeb, 0x3c, 0xa4, 0x1c, 0x9b, 0x3e,
  0x99, 0xda, 0xf3, 0xbd, 0x1c, 0x88, 0xbd, 0xbe, 0x68, 0x27, 0x2b, 0x3e,
  0xcd, 0xea, 0x26, 0xbd, 0xf5, 0x7c, 0x88, 0xbe, 0x0d, 0xcb, 0x3b, 0xbe,
  0x9d, 0x61, 0x83, 0x3d, 0x5c, 0x6c, 0xaa, 0x3d, 0x8c, 0xe6, 0x45, 0x3e,
  0xdc, 0x92, 0xab, 0x3e, 0xf5, 0xbe, 0x78, 0xbd, 0x61, 0x72, 0xec, 0xbc,
  0xdd, 0xea, 0x3f, 0xbd, 0x02, 0x97, 0x9f, 0x3e, 0x98, 0x5c, 0x85, 0xbd,
  0x69, 0xb5, 0x21, 0x3d, 0x33, 0xfd, 0xff, 0xbd, 0x48, 0x12, 0xd1, 0x3b,
  0x28, 0x1f, 0x45, 0xbe, 0x21, 0x25, 0xe6, 0x3c, 0xf2, 0xe8, 0xff, 0xff,
  0x04, 0x00, 0x00, 0x00, 0x00, 0x12, 0x00, 0x00, 0xa1, 0xd0, 0xb1, 0x3e,
  0x94, 0x88, 0x81, 0x3e, 0xd5, 0x0e, 0x62, 0xbe, 0xcf, 0x66, 0x18, 0x3d,
  0xbc, 0x7f, 0x91, 0x3e, 0x04, 0x42, 0xe2, 0xbd, 0xe3, 0x26, 0x25, 0xbe,
  0x88, 0xcd, 0xfe, 0x3e, 0x80, 0xd6, 0x16, 0x3f, 0x7c, 0x80, 0x15, 0xbe,
  0xdf, 0x10, 0xbb, 0xbe, 0xf4, 0x93, 0x37, 0x3e, 0x98, 0x5b, 0x8c, 0xbd,
  0x87, 0x4e, 0xa7, 0x3d, 0x5b, 0x55, 0x2b, 0xbe, 0x25, 0xff, 0x7f, 0x3e,
  0x41, 0xa0, 0xdc, 0xbd, 0x95, 0x8a, 0xb7, 0xbe, 0x1f, 0xe2, 0x83, 0x3d,
  0x30, 0x8a, 0xcf, 0x3e, 0x15, 0x35, 0x9d, 0x3d, 0xdc, 0x1b, 0x03, 0xbe,
  0x9b, 0x37, 0xe7, 0xbd, 0x8e, 0x75, 0xb0, 0xbe, 0x8d, 0x5d, 0x50, 0x3e,
  0xec, 0x68, 0xfd, 0x3d, 0xe3, 0x28, 0x6b, 0xbe, 0xcd, 0xfb, 0x1c, 0x3f,
  0x5c, 0x5e, 0xbd, 0xbd, 0x64, 0xcd, 0x19, 0x3f, 0x03, 0xcf, 0xea, 0x3d,
  0x63, 0x60, 0x82, 0x3e, 0xef, 0x45, 0xc5, 0x3e, 0x94, 0xcb, 0x0f, 0xbf,
  0xaf, 0xd6, 0x9b, 0x3e, 0x2d, 0xf7, 0x52, 0xbd, 0x31, 0x49, 0x17, 0x3e,
  0x3b, 0xa4, 0x3b, 0x3e, 0x2b, 0xfb, 0x04, 0x3f, 0x58, 0x6c, 0xb5, 0x3e,
  0xc2, 0xd7, 0x4c, 0x3e, 0xc2, 0x4d, 0x80, 0x3e, 0xcc, 0x3c, 0xab, 0xbd,
  0x9c, 0xef, 0xca, 0x3e, 0x6e, 0x71, 0x1f, 0xbe, 0x75, 0x9e, 0x2e, 0xbd,
  0xb6, 0xdc, 0xd6, 0x3e, 0xbf, 0x2e, 0x15, 0xbf, 0xb3, 0x6a, 0xa6, 0xbe,
  0xf7, 0x2a, 0x45, 0x3d, 0x5a, 0xa6, 0xb1, 0x3e, 0x58, 0x43, 0x1b, 0x3e,
  0xaf, 0x97, 0xb5, 0x3e, 0xae, 0x49, 0x0f, 0xbf, 0x63, 0x49, 0xf0, 0x3c,
  0x5a, 0x3b, 0xd2, 0x3e, 0x7f, 0x97, 0x30, 0x3d, 0xb8, 0xbe, 0x16, 0xbf,
  0xf2, 0x93, 0xd8, 0xbe, 0xf3, 0x09, 0xae, 0xbf, 0xeb, 0x71, 0xb0, 0xbe,
  0x27, 0xfb, 0x9c, 0xbf, 0x93, 0x32, 0x8e, 0x3e, 0x76, 0xf6, 0xbf, 0xbd,
  0xe0, 0x3e, 0xf5, 0x3d, 0x20, 0xcf, 0x5a, 0x3e, 0x14, 0xe0, 0xc3, 0xbf,
  0x38, 0x61, 0x89, 0x3e, 0xc4, 0x7f, 0x7e, 0xbe, 0x68, 0xda, 0x86, 0x3d,
  0x5b, 0x45, 0x18, 0xbe, 0xec, 0x2e, 0x8d, 0xbe, 0xf2, 0xdc, 0x60, 0xbc,
  0x2e, 0x21, 0xa4, 0x3d, 0x15, 0xf4, 0x9c, 0x3e, 0xb3, 0xa4, 0x29, 0x3f,
  0x18, 0x9f, 0x0e, 0xbe, 0xbc, 0x16, 0xfe, 0x3e, 0x1f, 0xfd, 0x37, 0xbf,
  0x8c, 0x99, 0x59, 0xbe, 0xc0, 0x68, 0x42, 0xbf, 0xbf, 0x2e, 0xc5, 0x3e,
  0xf6, 0xd7, 0x13, 0x3f, 0x2f, 0xef, 0x0e, 0x3f, 0xa6, 0x79, 0x05, 0x3d,
  0x44, 0x5c, 0x0a, 0x3e, 0xe5, 0xe2, 0x9d, 0xbe, 0x0c, 0x73, 0xb2, 0xbe,
  0x1e, 0x19, 0x6d, 0xbd, 0xd3, 0x84, 0x95, 0x3e, 0x1c, 0x76, 0xd2, 0xbd,
  0x4d, 0xdc, 0x06, 0x3e, 0x46, 0x46, 0x32, 0x3e, 0x65, 0x78, 0x1d, 0x3f,
  0x5d, 0x59, 0xa0, 0x3e, 0xb8, 0x8b, 0xc0, 0x3d, 0x04, 0xe6, 0xc0, 0x3e,
  0x2d, 0xd2, 0x24, 0xbf, 0xf0, 0xb2, 0x94, 0x3c, 0x43, 0xd4, 0xfb, 0x3e,
  0x6d, 0x10, 0x48, 0x3e, 0x4b, 0x16, 0x37, 0xbe, 0x9c, 0xbf, 0x80, 0x3e,
  0xfc, 0x20, 0x75, 0x3e, 0x79, 0xf2, 0x05, 0x3f, 0x87, 0x33, 0xfd, 0x3d,
  0x74, 0x56, 0xbc, 0x3e, 0x92, 0x49, 0x67, 0x3e, 0x51, 0x0b, 0x41, 0x3d,
  0xae, 0x5a, 0xca, 0xbe, 0x7e, 0xc6, 0x56, 0xbf, 0xb5, 0x68, 0x02, 0xbf,
  0x14, 0x40, 0x46, 0x3e, 0xb0, 0x08, 0x7e, 0xbe, 0x9d, 0xc7, 0x3c, 0xbf,
  0xc6, 0x22, 0x2b, 0x3d, 0xcb, 0xe5, 0x03, 0x3f, 0x45, 0xbc, 0xfd, 0x3e,
  0x47, 0x37, 0xcd, 0x3d, 0x39, 0xf0, 0xae, 0xbe, 0x3a, 0x00, 0xf1, 0x3d,
  0xaa, 0x27, 0xa9, 0x3e, 0xce, 0x8f, 0xda, 0xbd, 0xcd, 0x1f, 0xbe, 0xbe,
  0xe3, 0xd2, 0x01, 0xbf, 0x24, 0x90, 0xa4, 0xbc, 0xbe, 0x75, 0xbd, 0x3e,
  0x04, 0x1c, 0xf1, 0x3e, 0x89, 0x5b, 0xe1, 0x3d, 0x6e, 0xe7, 0xa1, 0xbd,
  0xf2, 0x57, 0x69, 0x3e, 0xce, 0x7f, 0x82, 0x3e, 0x54, 0x41, 0xd1, 0xbe,
  0x2f, 0x5b, 0xef, 0xbb, 0xf4, 0xb5, 0x0f, 0x3f, 0x91, 0x30, 0x58, 0xbe,
  0x19, 0x38, 0x22, 0x3e, 0x8f, 0x57, 0x7a, 0x3e, 0x07, 0xc3, 0xe6, 0x3d,
  0x5e, 0x53, 0x22, 0xbd, 0xb1, 0x49, 0x17, 0xbd, 0x5b, 0xa2, 0x00, 0x3f,
  0xf3, 0xa8, 0xe8, 0xbd, 0x20, 0xfa, 0xdf, 0x3e, 0x0b, 0x00, 0x59, 0x3d,
  0x28, 0xa7, 0x05, 0x3e, 0x3b, 0x18, 0x3f, 0xbf, 0x67, 0x50, 0x8e, 0x3e,
  0xe7, 0x7f, 0xa6, 0xbf, 0x8a, 0xd2, 0x41, 0xbf, 0xfb, 0xb9, 0x92, 0xbf,
  0x09, 0x17, 0xbc, 0x3d, 0x78, 0x22, 0x44, 0xbe, 0xf4, 0xb8, 0xc0, 0x3c,
  0xa9, 0xe1, 0xe7, 0xbe, 0x61, 0x29, 0xbd, 0xbe, 0x62, 0x14, 0x57, 0xbd,
  0x08, 0xf2, 0x15, 0x3e, 0x7b, 0x03, 0x7c, 0xbd, 0xb9, 0x5f, 0x82, 0xbd,
  0xda, 0xe2, 0x94, 0x3e, 0x1f, 0x5c, 0x4c, 0x3e, 0xd1, 0xd2, 0x10, 0x3d,
  0xef, 0x14, 0x26, 0xbd, 0x0e, 0xae, 0xf1, 0xba, 0x80, 0xe8, 0xfe, 0xbc,
  0x62, 0x4c, 0x9a, 0xbf, 0x6a, 0x1f, 0x49, 0xbf, 0x1f, 0x09, 0x8a, 0xbe,
  0xa2, 0x2a, 0x3d, 0xbf, 0x83, 0xae, 0xb7, 0x3e, 0x5e, 0x1c, 0x4c, 0x3e,
  0xec, 0x9c, 0x14, 0x3f, 0x4c, 0x97, 0x6a, 0x3e, 0x4c, 0xce, 0x08, 0xbe,
  0x15, 0xf9, 0xde, 0xbe, 0xa4, 0x93, 0x69, 0xbe, 0xf8, 0x95, 0x73, 0xbe,
  0xd9, 0xd9, 0xd8, 0x3e, 0x1a, 0x7c, 0xc2, 0xbf, 0x6c, 0xa8, 0xcd, 0x3d,
  0x03, 0xab, 0xd8, 0xbf, 0xa6, 0xac, 0x54, 0x3d, 0xd5, 0x74, 0xde, 0xbc,
  0x59, 0x21, 0x88, 0x3e, 0xbf, 0x35, 0x69, 0x3e, 0x0d, 0x3a, 0x8f, 0xbc,
  0x57, 0xd5, 0x2c, 0xbf, 0xb5, 0x0b, 0x86, 0x3d, 0x84, 0x31, 0x22, 0xbb,
  0xa2, 0x2d, 0x42, 0x3f, 0xae, 0xfa, 0x78, 0x3e, 0x7d, 0x4e, 0x7f, 0x3d,
  0x6e, 0xee, 0xe6, 0xba, 0x8c, 0xbb, 0xf3, 0xbd, 0xf3, 0x22, 0x0e, 0xbe,
  0x2a, 0x1e, 0xe8, 0x3d, 0xfa, 0xca, 0xd4, 0x3d, 0x19, 0x9b, 0x8c, 0x3e,
  0xfb, 0x84, 0xe3, 0xbe, 0xb3, 0xde, 0x37, 0xbe, 0xc8, 0xb2, 0xdb, 0x3d,
  0x8d, 0xb3, 0x81, 0x3e, 0xb5, 0xe2, 0x85, 0x3e, 0x9a, 0x77, 0x63, 0x3e,
  0x01, 0xc0, 0x54, 0xbd, 0xa1, 0x99, 0x03, 0x3f, 0x10, 0xd2, 0x1e, 0x3e,
  0x24, 0x2c, 0xe2, 0xbe, 0xca, 0x66, 0x7d, 0x3e, 0xfb, 0xd0, 0xc4, 0xbe,
  0x83, 0xc0, 0x4d, 0xbe, 0x35, 0x38, 0x31, 0x3e, 0xa9, 0xb8, 0xb7, 0x3e,
  0xeb, 0x3d, 0x55, 0x3e, 0x3a, 0x91, 0x9b, 0x3e, 0x8b, 0x08, 0xe5, 0x3e,
  0xa4, 0x16, 0xa5, 0xbd, 0x2a, 0xc6, 0x8a, 0xbe, 0x19, 0x3f, 0x49, 0x3e,
  0xff, 0x40, 0xb4, 0x3e, 0xa1, 0x47, 0xb2, 0xbe, 0xdd, 0x4e, 0x8c, 0x3d,
  0xd0, 0xec, 0x10, 0xbe, 0x59, 0xa3, 0x93, 0xbd, 0xd3, 0x46, 0x87, 0xbe,
  0x81, 0x9c, 0xd8, 0xbe, 0xbe, 0xb5, 0x18, 0x3e, 0xd3, 0xb8, 0x96, 0x3e,
  0x8c, 0x63, 0xf5, 0x3e, 0xa1, 0x86, 0xc7, 0x3e, 0xf0, 0x9b, 0x03, 0xbe,
  0x64, 0xf4, 0xe8, 0xbe, 0x87, 0xaf, 0xfb, 0x3d, 0x02, 0x1d, 0xdc, 0xbd,
  0xf9, 0x2a, 0x86, 0x3e, 0x0b, 0xb9, 0x23, 0x3e, 0x17, 0x6f, 0x73, 0xbd,
  0x08, 0x87, 0x3a, 0xbe, 0xc3, 0x7c, 0x59, 0x3e, 0x8d, 0x01, 0x9e, 0xbf,
  0x33, 0x9c, 0x7e, 0x3f, 0xb0, 0xc5, 0xaa, 0x3e, 0x20, 0xc9, 0x4f, 0xbf,
  0xe4, 0x17, 0x54, 0xbf, 0x1e, 0xab, 0xa8, 0x3e, 0xe2, 0x28, 0x23, 0xbe,
  0x3c, 0x36, 0x18, 0xbf, 0xad, 0x9e, 0xfa, 0x3e, 0x5a, 0xd0, 0x00, 0xbe,
  0xfc, 0xac, 0x37, 0x3e, 0xdd, 0x15, 0x15, 0xbd, 0x25, 0x78, 0x13, 0x3e,
  0x81, 0xd6, 0xae, 0xbd, 0xd3, 0xba, 0x70, 0x3d, 0x39, 0x8d, 0x9b, 0xbe,
  0xc0, 0x19, 0x4d, 0x3e, 0xc4, 0x58, 0xb6, 0x3e, 0x5c, 0x56, 0xa6, 0x3e,
  0xf6, 0xf0, 0x88, 0x3d, 0x6f, 0x24, 0xa6, 0x3e, 0x00, 0x61, 0x4e, 0x3e,
  0x3d, 0x89, 0x51, 0x3e, 0xfe, 0xe9, 0x92, 0xbe, 0x00, 0x55, 0x7f, 0x3e,
  0xb8, 0x9f, 0x10, 0xbf, 0x19, 0xdf, 0x81, 0x3e, 0x12, 0x4b, 0x7c, 0x3e,
  0xd2, 0x8a, 0x05, 0x3f, 0x13, 0x5e, 0x7c, 0xbf, 0xb2, 0x5c, 0xc1, 0x3e,
  0x0b, 0xc9, 0xd8, 0x3d, 0xea, 0x79, 0x05, 0x3d, 0x1f, 0x60, 0xeb, 0xbe,
  0xbe, 0xe0, 0xf6, 0xbe, 0xb8, 0x86, 0x48, 0xbf, 0x90, 0x20, 0x82, 0x3e,
  0x75, 0xb9, 0x5d, 0xbe, 0x50, 0x47, 0x94, 0x3e, 0x00, 0x2b, 0x93, 0x3e,
  0x39, 0xd5, 0x96, 0xbe, 0x80, 0xf7, 0x0c, 0xbf, 0x09, 0x4a, 0x22, 0xbf,
  0xcb, 0xd1, 0x23, 0xbe, 0xc7, 0x77, 0x9c, 0x3e, 0x53, 0xd0, 0xd3, 0x3d,
  0xe4, 0x1e, 0xa4, 0x3e, 0x14, 0x1e, 0x0e, 0x3e, 0x6a, 0xab, 0xe5, 0xbe,
  0x6b, 0xde, 0xca, 0xbc, 0xee, 0x73, 0x5f, 0x3e, 0x61, 0xc7, 0xe3, 0x3e,
  0xdf, 0xe1, 0x8e, 0x3e, 0xa3, 0x5d, 0x60, 0x3e, 0x10, 0xc9, 0x11, 0xbf,
  0x17, 0x4b, 0x7b, 0x3b, 0x29, 0x6b, 0xa7, 0xbe, 0xf6, 0xb0, 0xf8, 0xbd,
  0x99, 0x4a, 0x10, 0xbc, 0x4d, 0xa3, 0x8f, 0xbe, 0x64, 0xfa, 0x1b, 0x3e,
  0xb8, 0xa9, 0x7a, 0xbe, 0xf9, 0x10, 0x26, 0x3e, 0xc4, 0x3e, 0x68, 0x3f,
  0x58, 0xf0, 0x30, 0xbe, 0xed, 0x58, 0x0d, 0xbd, 0x3b, 0x93, 0xb9, 0xbd,
  0xc7, 0xd7, 0x0f, 0x3e, 0x32, 0x4f, 0x75, 0x3b, 0x81, 0x95, 0xe6, 0x3e,
  0x40, 0x46, 0xdb, 0xbd, 0xf5, 0xb7, 0xd7, 0xbb, 0xda, 0xb9, 0x82, 0xbd,
  0x10, 0x03, 0x5d, 0x3d, 0xec, 0x38, 0x77, 0x3d, 0xa3, 0x1c, 0xcd, 0xbe,
  0x51, 0x55, 0x15, 0x3e, 0x88, 0xae, 0x1a, 0x3f, 0xaa, 0x18, 0x2b, 0xbe,
  0xef, 0xa7, 0x6b, 0x3c, 0xeb, 0x84, 0x1b, 0xbf, 0x91, 0xd3, 0x35, 0xbc,
  0x67, 0x0f, 0xfe, 0xbe, 0xd6, 0xa5, 0x69, 0x3e, 0xab, 0x1d, 0x86, 0x3d,
  0xa4, 0xff, 0x45, 0x3e, 0x23, 0xb0, 0xeb, 0x3c, 0x3a, 0xab, 0x0f, 0x3f,
  0x25, 0xbb, 0x96, 0x3d, 0x4d, 0xcd, 0x08, 0x3e, 0xe1, 0x09, 0x58, 0xbd,
  0x44, 0x4c, 0xef, 0x3c, 0x49, 0x62, 0x01, 0x3e, 0x0b, 0xb0, 0x72, 0xbe,
  0x05, 0x18, 0x59, 0xbe, 0x77, 0xbf, 0xdf, 0xbe, 0xa0, 0xfc, 0xc1, 0x3d,
  0x6b, 0x57, 0xdf, 0x3d, 0x54, 0x7e, 0x29, 0x3e, 0xfb, 0x04, 0xfe, 0xbe,
  0x44, 0x29, 0x65, 0x3b, 0x2b, 0xc6, 0x5a, 0xbf, 0x95, 0x60, 0x24, 0x3e,
  0x7a, 0xc8, 0x18, 0xbf, 0x96, 0x88, 0x81, 0x3e, 0x62, 0xd5, 0x41, 0x3d,
  0x49, 0x30, 0xdb, 0x3e, 0x97, 0xee, 0x8c, 0x3d, 0x2b, 0xde, 0x89, 0x3e,
  0x2e, 0xd6, 0xfb, 0x3e, 0x26, 0x08, 0xc0, 0x3c, 0x89, 0x58, 0xaa, 0xbe,
  0x05, 0x80, 0x9b, 0xbd, 0x8f, 0xea, 0x81, 0x3c, 0xfb, 0x71, 0xff, 0xbd,
  0x42, 0x05, 0x53, 0xbe, 0x47, 0xba, 0xb4, 0x3c, 0x30, 0xde, 0xda, 0xbe,
  0xac, 0x0c, 0x7d, 0xbd, 0xf3, 0xb0, 0x04, 0xbf, 0x2d, 0xc1, 0x86, 0x3d,
  0x24, 0x28, 0x25, 0x3e, 0x58, 0xb4, 0xae, 0xbe, 0xbd, 0xf9, 0xc8, 0x3e,
  0x92, 0xf7, 0xf4, 0xbd, 0x25, 0xb8, 0xb9, 0xbe, 0xf7, 0x9b, 0x96, 0x3e,
  0x2e, 0x33, 0x8c, 0x3e, 0x1b, 0x49, 0x53, 0xbc, 0xf4, 0xd1, 0xe4, 0x3e,
  0xe9, 0x9f, 0x8a, 0xbe, 0xf7, 0x8d, 0x68, 0x3e, 0x2f, 0x85, 0x82, 0xbe,
  0xa5, 0xa1, 0x54, 0x3e, 0x20, 0x44, 0x66, 0x3e, 0x0b, 0x31, 0x8d, 0x3e,
  0xb6, 0xfa, 0xbb, 0x3c, 0x4a, 0xd1, 0x71, 0x39, 0x05, 0x98, 0x93, 0x3e,
  0xc2, 0x9a, 0xf7, 0x3d, 0x0b, 0xa8, 0x47, 0x3e, 0x7b, 0x45, 0xb9, 0x3d,
  0x7e, 0xaf, 0x95, 0x3e, 0xcc, 0x11, 0x1d, 0xbd, 0x96, 0x11, 0xc0, 0xbe,
  0x67, 0x40, 0x03, 0xbf, 0x1d, 0x61, 0xd3, 0x3d, 0xf4, 0x78, 0x9e, 0x3e,
  0xf3, 0x6e, 0x6c, 0xbe, 0x7d, 0x60, 0x6f, 0xbd, 0x34, 0xb9, 0x74, 0x3e,
  0xa8, 0x26, 0xe2, 0x3b, 0xa7, 0x18, 0xa6, 0xbe, 0x26, 0x03, 0x93, 0x3d,
  0x35, 0xeb, 0x6c, 0xbd, 0x0b, 0x71, 0x85, 0xbd, 0xb6, 0xc9, 0xce, 0xbc,
  0x2a, 0xf3, 0xf0, 0xbd, 0x04, 0xbc, 0xed, 0xbd, 0xce, 0xbe, 0x66, 0xbe,
  0x08, 0xd8, 0xb9, 0x3e, 0xd7, 0x37, 0x83, 0x3e, 0x94, 0xe0, 0x08, 0x3d,
  0x51, 0x56, 0x87, 0x3e, 0x55, 0xc5, 0x06, 0xbe, 0x13, 0x01, 0xc7, 0x3c,
  0x18, 0xea, 0xb8, 0xbe, 0x4e, 0x28, 0x63, 0xbf, 0x20, 0xd3, 0x95, 0xbe,
  0xca, 0x4f, 0x1a, 0xbf, 0x3b, 0x47, 0x07, 0x3e, 0x31, 0x52, 0x44, 0x3e,
  0xd6, 0x7f, 0xd4, 0x3e, 0x46, 0x3a, 0x04, 0x3e, 0x8d, 0x0d, 0x44, 0xbd,
  0x5c, 0x81, 0x93, 0x3d, 0x11, 0xb6, 0x1c, 0x3d, 0x33, 0x3c, 0x34, 0xbe,
  0xf3, 0xef, 0x11, 0x3e, 0x81, 0xdb, 0xeb, 0x3e, 0x14, 0xea, 0x0c, 0x3f,
  0x1a, 0xf9, 0xd1, 0x3e, 0xd0, 0x8e, 0x26, 0xbf, 0xe6, 0x29, 0x1b, 0xbe,
  0xed, 0x60, 0xc7, 0x3e, 0x70, 0xc3, 0x7f, 0xbe, 0xa7, 0x97, 0x7a, 0xbd,
  0x92, 0xcc, 0x71, 0x3e, 0x99, 0xdf, 0xa9, 0x3e, 0x06, 0xa8, 0x0f, 0x3f,
  0x16, 0x37, 0x56, 0xbe, 0x1e, 0xe6, 0x2d, 0xbe, 0xd3, 0x6a, 0xbc, 0x3d,
  0x6e, 0x1e, 0x40, 0x3f, 0x34, 0x7b, 0x11, 0x3f, 0x4a, 0x4d, 0x10, 0xbf,
  0xaa, 0xf2, 0x4c, 0xbf, 0xa5, 0x6b, 0xbb, 0xbd, 0xee, 0x5c, 0x66, 0x3e,
  0x33, 0xcb, 0x0c, 0xbf, 0xc7, 0xbc, 0x13, 0xbf, 0xf4, 0x11, 0xc6, 0x3d,
  0xbe, 0xec, 0x59, 0xbf, 0x23, 0x1a, 0xd9, 0x3e, 0xe9, 0x8e, 0x20, 0xbd,
  0x56, 0xf4, 0x79, 0x3e, 0x1e, 0xd0, 0xfa, 0x3c, 0xaf, 0xb8, 0xca, 0xbc,
  0x78, 0x9a, 0x1a, 0xbe, 0x09, 0xf1, 0xe1, 0xbd, 0x42, 0xdc, 0x91, 0x3e,
  0x9c, 0x02, 0x98, 0xbe, 0xa7, 0x49, 0x30, 0xbf, 0x5f, 0x8d, 0x12, 0xbf,
  0x3b, 0x15, 0x09, 0xbe, 0x11, 0x1d, 0x10, 0xbf, 0x01, 0xee, 0x24, 0xbf,
  0xec, 0x07, 0x3b, 0xbf, 0x59, 0x4c, 0xa9, 0x3e, 0xc2, 0x5c, 0x79, 0xbc,
  0xef, 0xaf, 0x33, 0x3e, 0x99, 0x72, 0x40, 0xbf, 0x8b, 0xa0, 0x38, 0xbf,
  0x88, 0x90, 0xac, 0xbe, 0xfb, 0xa2, 0x78, 0xbe, 0xd1, 0x88, 0x03, 0x3e,
  0xc1, 0xb7, 0x2c, 0x3e, 0x27, 0x53, 0x9b, 0x3c, 0x1c, 0xac, 0xaa, 0x3d,
  0x84, 0x91, 0x29, 0x3e, 0x09, 0x70, 0x82, 0xbf, 0x35, 0xa1, 0xb8, 0xbd,
  0x5f, 0x3e, 0xc4, 0x3e, 0x53, 0x30, 0xcf, 0xbe, 0xac, 0xe2, 0x8e, 0x3e,
  0x8e, 0x5f, 0x4a, 0xbf, 0xe3, 0x3d, 0x25, 0xbd, 0x18, 0x3a, 0x87, 0x3e,
  0xfe, 0x5a, 0x80, 0xbe, 0x18, 0xa4, 0x30, 0x3e, 0xf9, 0x07, 0xdf, 0xbe,
  0x43, 0xeb, 0x62, 0x3f, 0xb7, 0x00, 0x96, 0x3c, 0x7e, 0x3a, 0x1d, 0xbe,
  0x51, 0x21, 0x5a, 0xbd, 0x29, 0x5e, 0x0c, 0xbf, 0x58, 0x5e, 0xdd, 0xbe,
  0x8b, 0xdf, 0x3f, 0xbe, 0xc0, 0x9a, 0xec, 0xbd, 0x71, 0x65, 0x80, 0xbe,
  0x96, 0xa2, 0x19, 0xbf, 0x2e, 0x8d, 0x4d, 0xbe, 0x77, 0xbe, 0xb7, 0xbe,
  0xa7, 0xec, 0x3a, 0x3d, 0xaf, 0x19, 0x88, 0x3e, 0xe0, 0x2e, 0x31, 0x3e,
  0xa8, 0xe4, 0xbe, 0xbd, 0xae, 0x8b, 0xae, 0xbe, 0x13, 0x3c, 0x51, 0x3a,
  0xa8, 0x91, 0x04, 0xbe, 0x0e, 0xf7, 0x1d, 0x3d, 0x9d, 0xb2, 0x5d, 0xbf,
  0xe5, 0x48, 0xe8, 0xbe, 0xad, 0x5d, 0x6d, 0xbf, 0x9e, 0x41, 0x7a, 0xbf,
  0xb1, 0xb0, 0xd1, 0xbe, 0x5d, 0x99, 0x9e, 0x3d, 0x01, 0x48, 0x38, 0x3f,
  0xa9, 0x34, 0x03, 0xbe, 0xa6, 0xf8, 0xf2, 0xbd, 0xb0, 0x8f, 0x84, 0x3e,
  0x73, 0x06, 0xf1, 0xbb, 0xeb, 0x44, 0x92, 0x3c, 0xa1, 0xc0, 0x80, 0xbe,
  0xa8, 0x0d, 0x8a, 0x3e, 0x52, 0xa1, 0x9a, 0xbe, 0xf9, 0x7a, 0xdd, 0xbd,
  0x00, 0x07, 0x07, 0x3c, 0xb4, 0x43, 0x5d, 0xbf, 0xd9, 0x5c, 0x87, 0x3e,
  0x23, 0x00, 0x19, 0x3e, 0x71, 0x60, 0x5f, 0x3e, 0x25, 0x37, 0xf0, 0x3d,
  0x69, 0x89, 0xea, 0xbc, 0xef, 0xe2, 0xde, 0xbe, 0x9f, 0x76, 0x1d, 0xbd,
  0x36, 0xe4, 0xb3, 0x3e, 0xb8, 0xe0, 0xd0, 0xbe, 0x6c, 0x68, 0xff, 0x3e,
  0x59, 0x89, 0x53, 0xbe, 0x8f, 0xda, 0xae, 0xbf, 0x36, 0x2f, 0x27, 0xbf,
  0x1d, 0x28, 0xda, 0x3e, 0xec, 0xd0, 0xa2, 0x3e, 0x51, 0xcd, 0x0b, 0x3f,
  0x96, 0x78, 0x87, 0xbe, 0x55, 0x39, 0x62, 0xbe, 0x16, 0x42, 0x8f, 0x3e,
  0x3b, 0x17, 0x8f, 0x3e, 0xd6, 0x6a, 0xaa, 0x3e, 0xfe, 0x05, 0x4c, 0xbf,
  0xda, 0x9b, 0xf0, 0x3c, 0xba, 0xfc, 0xdf, 0xbe, 0xaf, 0xe6, 0xb3, 0x3a,
  0xc9, 0x82, 0xcb, 0xbe, 0xc5, 0x57, 0x81, 0xbe, 0xc5, 0x3e, 0x31, 0x3e,
  0x2a, 0x15, 0x82, 0x3e, 0x04, 0x46, 0xbe, 0xbd, 0x62, 0x36, 0x00, 0xbe,
  0x8b, 0x24, 0x87, 0x3d, 0xe4, 0x2e, 0x05, 0xbe, 0x90, 0x2e, 0x99, 0xbe,
  0x3e, 0x96, 0x9c, 0x3d, 0xa5, 0xc0, 0xe8, 0xbe, 0xf6, 0xa7, 0x3c, 0xbe,
  0xf6, 0xa0, 0x74, 0xbe, 0x7c, 0x8d, 0xc5, 0xbd, 0x11, 0x14, 0x33, 0xbf,
  0xf7, 0x58, 0x48, 0xbe, 0x7f, 0x3d, 0x2b, 0x3d, 0xf5, 0x68, 0x8c, 0x3e,
  0x5d, 0x98, 0x54, 0xbf, 0x5f, 0x3a, 0x8f, 0x3e, 0xa4, 0x93, 0x9a, 0x3e,
  0x09, 0x6c, 0x3f, 0x3e, 0x31, 0x7d, 0xce, 0x3d, 0x0e, 0x0d, 0xba, 0xbd,
  0x97, 0xf8, 0x61, 0xbf, 0xbe, 0xef, 0xa7, 0x3c, 0x38, 0xe8, 0x4f, 0x3e,
  0x3a, 0x49, 0x62, 0x3e, 0x2f, 0xe4, 0x4a, 0xbe, 0x73, 0xe5, 0x55, 0x3e,
  0x69, 0xc1, 0xc0, 0x3e, 0x29, 0xf0, 0x8c, 0x3e, 0x29, 0xc2, 0xa9, 0xbf,
  0x97, 0x97, 0xa2, 0x3e, 0xad, 0x35, 0x86, 0x3e, 0x3f, 0x5a, 0x57, 0xbe,
  0xe7, 0x3b, 0xeb, 0xbf, 0x38, 0xbe, 0x86, 0x3b, 0x63, 0x39, 0xa2, 0xbe,
  0x8c, 0xb4, 0x72, 0x3e, 0x20, 0x82, 0x7f, 0xbe, 0xd4, 0x1e, 0xe0, 0xbe,
  0x72, 0xac, 0xf1, 0xbd, 0x0c, 0xab, 0x0b, 0x3c, 0xdd, 0x38, 0x2f, 0x3e,
  0x17, 0x75, 0x81, 0x3e, 0x17, 0x15, 0xa2, 0x3b, 0xaf, 0x8c, 0x13, 0x3f,
  0x7a, 0xe6, 0x81, 0xbe, 0xfc, 0x12, 0x27, 0x3e, 0xca, 0x3a, 0x8b, 0x3e,
  0x66, 0xbf, 0xab, 0x3e, 0xf7, 0xee, 0x8e, 0x3e, 0x40, 0x18, 0xcf, 0x3c,
  0x58, 0xc1, 0xca, 0xbe, 0x35, 0xf2, 0xd5, 0xbc, 0xf6, 0xa9, 0x2f, 0x3f,
  0x0b, 0x2a, 0x19, 0xbf, 0xec, 0x38, 0x60, 0x3d, 0xa1, 0x26, 0x02, 0xbf,
  0xe9, 0x9e, 0x83, 0x3e, 0x65, 0x7d, 0xde, 0x3c, 0x73, 0xd2, 0xb7, 0x3e,
  0x32, 0x53, 0x11, 0xbd, 0x80, 0x48, 0x11, 0xbe, 0x58, 0x9e, 0xd0, 0x3d,
  0x89, 0x12, 0x9c, 0xbe, 0xd9, 0x37, 0x03, 0xbf, 0x2c, 0x09, 0x11, 0x3e,
  0xf4, 0x74, 0xb0, 0x3e, 0xc7, 0x3b, 0x95, 0xbe, 0x02, 0x53, 0xc0, 0x3e,
  0x16, 0x38, 0xa8, 0x3e, 0xc4, 0xc4, 0xac, 0xbe, 0xb7, 0x7f, 0xef, 0xbe,
  0x7a, 0xd1, 0x03, 0xc0, 0x4d, 0x10, 0xce, 0x3e, 0x38, 0xc7, 0x0c, 0xbf,
  0x63, 0xcc, 0xcc, 0xbe, 0xba, 0x3f, 0x4e, 0xbf, 0xb6, 0xf4, 0x2d, 0x3e,
  0x04, 0x8c, 0x68, 0xbf, 0x74, 0xa7, 0x6c, 0x3d, 0x3c, 0x48, 0x17, 0x3e,
  0xa1, 0xc6, 0x39, 0x3e, 0xe2, 0x4b, 0xc0, 0x3e, 0xac, 0x20, 0xc3, 0xbe,
  0xd1, 0x80, 0xc6, 0xbf, 0x3d, 0xfe, 0x0a, 0xbf, 0x74, 0xa3, 0x70, 0x3e,
  0x36, 0xc3, 0x51, 0xbc, 0xbb, 0x21, 0xaf, 0x3e, 0xb4, 0x1f, 0xa7, 0x3e,
  0xfc, 0xb7, 0xb0, 0x3d, 0x1a, 0xd9, 0x95, 0x3d, 0x95, 0x35, 0xd8, 0xbf,
  0x87, 0xc6, 0xa8, 0x3e, 0x19, 0x6f, 0x8d, 0x3e, 0xba, 0x17, 0xc5, 0x3d,
  0x39, 0x49, 0x7b, 0x3e, 0xc2, 0xaf, 0xaa, 0xbf, 0x56, 0x0a, 0x8a, 0xbe,
  0x04, 0x81, 0x10, 0x3e, 0xbd, 0x95, 0xed, 0xbd, 0xec, 0x68, 0xae, 0xbf,
  0x06, 0x8a, 0xd2, 0x3d, 0xe4, 0x94, 0xcd, 0x3d, 0x9f, 0xb8, 0xa0, 0xbf,
  0x8c, 0x7d, 0xb9, 0x3e, 0xa2, 0x49, 0x36, 0xbd, 0xf7, 0x4a, 0x8d, 0x3d,
  0x61, 0x00, 0x64, 0xbd, 0xf4, 0xf0, 0xa6, 0x3e, 0xc0, 0x91, 0x48, 0x3e,
  0x97, 0x8c, 0x19, 0xbd, 0x04, 0xc0, 0x10, 0xbe, 0x9a, 0x4d, 0x2a, 0xbd,
  0x89, 0xd8, 0x47, 0x3e, 0xff, 0x40, 0x8b, 0xbe, 0x82, 0x4d, 0xb5, 0x3d,
  0x46, 0x37, 0xd4, 0x3e, 0x8a, 0xb2, 0xcf, 0xbe, 0x11, 0x3b, 0x6e, 0x3e,
  0x75, 0x61, 0xe1, 0x3c, 0x9e, 0x8b, 0x3e, 0xbe, 0xb1, 0x07, 0x56, 0xbe,
  0x4d, 0xc0, 0x2c, 0xbc, 0x4b, 0xcb, 0x41, 0xbd, 0x79, 0x12, 0x0c, 0x3f,
  0x98, 0x81, 0xe8, 0x3e, 0xc6, 0x1c, 0x0c, 0xbf, 0x18, 0x4b, 0x1c, 0x3e,
  0xb4, 0x06, 0xa4, 0x3e, 0xc8, 0x43, 0xca, 0xbe, 0x12, 0xbd, 0x70, 0xbe,
  0x5c, 0x9c, 0x30, 0x3f, 0x01, 0xa5, 0xdc, 0x3d, 0x14, 0x39, 0xa1, 0xbe,
  0xa6, 0xfd, 0x3e, 0xbf, 0x23, 0xaa, 0xa6, 0xbd, 0x0d, 0x45, 0x62, 0xbf,
  0x79, 0x51, 0x08, 0x3f, 0x7e, 0x71, 0x4f, 0x3f, 0xe2, 0xc5, 0xd6, 0x3e,
  0xb0, 0x9d, 0x05, 0xbf, 0x83, 0xa8, 0x06, 0xbf, 0x66, 0xeb, 0x25, 0xbe,
  0x61, 0x12, 0x47, 0xbe, 0x86, 0x9d, 0x97, 0x3e, 0xac, 0x32, 0x7d, 0x3d,
  0x28, 0xdf, 0x85, 0x3d, 0xa0, 0x38, 0x28, 0x3e, 0xcd, 0x13, 0x66, 0x3e,
  0x07, 0x23, 0x9a, 0x3e, 0xe8, 0x73, 0x89, 0x3d, 0x6c, 0x41, 0x22, 0x3f,
  0x79, 0x76, 0xd4, 0xbe, 0x59, 0x8a, 0xd4, 0x3e, 0xb7, 0x3c, 0xeb, 0xbd,
  0x63, 0xe3, 0xfa, 0xbb, 0x89, 0xa7, 0xd7, 0xbc, 0x5d, 0x38, 0x93, 0x3e,
  0xb3, 0xa1, 0x93, 0x3e, 0x2b, 0xcf, 0xd5, 0x3e, 0x11, 0xf2, 0xe0, 0xbd,
  0xd0, 0xd1, 0x8b, 0x3d, 0xbe, 0x18, 0x9c, 0xbd, 0x6d, 0x16, 0x96, 0x3e,
  0xde, 0x71, 0x9e, 0xbd, 0x55, 0x7d, 0x6f, 0x3d, 0xc2, 0x3c, 0x12, 0x3f,
  0x3e, 0xbf, 0x62, 0xbe, 0xb6, 0xbd, 0x0f, 0xbf, 0x0c, 0xe5, 0xc0, 0x3d,
  0x97, 0xb3, 0x84, 0x39, 0x9a, 0x7a, 0x3f, 0xbe, 0x3b, 0xe2, 0x09, 0x3e,
  0x9d, 0xd7, 0x92, 0xbe, 0x64, 0xc5, 0x95, 0xbe, 0xe9, 0x9e, 0x43, 0xbe,
  0x4a, 0xb2, 0x92, 0xbd, 0x08, 0x6f, 0x7e, 0xbe, 0xad, 0x6e, 0x44, 0xbe,
  0x2e, 0xa7, 0x35, 0x3e, 0x81, 0xd0, 0x2c, 0xbf, 0x76, 0x30, 0xd7, 0x3e,
  0x96, 0x1e, 0x52, 0x3e, 0xc3, 0xfc, 0xda, 0xbd, 0x60, 0xfb, 0x97, 0xbe,
  0x10, 0x65, 0x7d, 0x3e, 0x5a, 0xa6, 0x0b, 0x3f, 0x7c, 0x87, 0x84, 0xbf,
  0x76, 0x16, 0x25, 0x3e, 0x85, 0x1e, 0x2c, 0x3e, 0x91, 0x00, 0x85, 0x3e,
  0x65, 0x4f, 0x04, 0xbd, 0x41, 0x0b, 0x16, 0xbe, 0xbf, 0x19, 0x16, 0xbf,
  0xa2, 0xd2, 0x28, 0xbd, 0x12, 0xd1, 0x3a, 0x3e, 0x8b, 0x26, 0x37, 0xbf,
  0xd5, 0x43, 0x8c, 0x3c, 0xec, 0x9e, 0x14, 0x3e, 0x14, 0x81, 0x94, 0x3e,
  0x2e, 0x66, 0x42, 0x3d, 0xc9, 0x92, 0x38, 0x3e, 0xe6, 0xb8, 0x04, 0xbe,
  0x73, 0xca, 0xe5, 0xbe, 0x0b, 0x9c, 0xf7, 0x3d, 0xc3, 0x05, 0x11, 0x3f,
  0x25, 0x9f, 0x32, 0xbe, 0x16, 0x30, 0x94, 0xbe, 0x66, 0x08, 0x8c, 0x3e,
  0xa5, 0xc2, 0x67, 0x3e, 0xb3, 0x12, 0x90, 0x3e, 0xff, 0x15, 0x8e, 0xbd,
  0xdc, 0x27, 0x05, 0x3f, 0x70, 0x1b, 0xde, 0x3d, 0xa9, 0x8b, 0x83, 0x3e,
  0x73, 0x7a, 0x62, 0xbe, 0x65, 0x88, 0x25, 0x3e, 0xad, 0x9d, 0x65, 0xbf,
  0x8c, 0xb1, 0x18, 0x3f, 0x39, 0x7d, 0x89, 0xbd, 0x75, 0x75, 0x74, 0x3d,
  0x4d, 0x31, 0x85, 0x3f, 0xee, 0x69, 0x9b, 0x3e, 0x68, 0xea, 0xeb, 0xbe,
  0x10, 0x6d, 0xcf, 0x3e, 0x6c, 0x32, 0xda, 0xbe, 0x67, 0xdd, 0x00, 0x3e,
  0x6c, 0x03, 0x19, 0xbe, 0x26, 0x02, 0xd3, 0x3d, 0xeb, 0xa7, 0x0b, 0x3d,
  0x3e, 0xc7, 0x43, 0xbe, 0x16, 0x81, 0xb7, 0x3d, 0x5d, 0x3a, 0xd4, 0x3e,
  0x5c, 0xc9, 0xea, 0x3c, 0xb3, 0x5e, 0xf4, 0x3d, 0x67, 0x11, 0x75, 0x3d,
  0x2a, 0x5f, 0x49, 0xbc, 0x4d, 0xff, 0xe4, 0x3d, 0x77, 0x28, 0x38, 0x3e,
  0x89, 0xe7, 0x60, 0xbf, 0xd9, 0x4b, 0xc4, 0x3d, 0x55, 0x61, 0x65, 0x3e,
  0x73, 0x65, 0xbc, 0x3d, 0x8e, 0xf1, 0x86, 0x3d, 0x0d, 0xb8, 0x29, 0x3d,
  0x22, 0x95, 0xb3, 0x3d, 0x79, 0x31, 0x3c, 0xbe, 0x94, 0x41, 0x80, 0xbf,
  0xd6, 0x78, 0x00, 0x3f, 0xb6, 0x57, 0x5a, 0xbf, 0xa5, 0xd6, 0xcc, 0x3d,
  0x80, 0x96, 0x5f, 0x3d, 0xdd, 0xd4, 0x65, 0xbe, 0x46, 0x68, 0x2d, 0x3e,
  0x12, 0xe4, 0x08, 0x3f, 0x7a, 0x8b, 0x41, 0x3f, 0x72, 0xc2, 0x2e, 0xbf,
  0x64, 0xdc, 0x1f, 0x3e, 0x95, 0x10, 0xab, 0x3d, 0x3e, 0x6a, 0xb3, 0x3d,
  0x01, 0xe8, 0x2d, 0x3c, 0x9d, 0x7d, 0x96, 0xbe, 0x41, 0xe4, 0xfb, 0x3d,
  0x31, 0xde, 0x15, 0xbe, 0x55, 0x4c, 0x06, 0x3e, 0xb5, 0x03, 0x28, 0xbe,
  0x5f, 0x1c, 0xec, 0xbe, 0xb7, 0xbe, 0x0c, 0x3e, 0xf4, 0xb5, 0x90, 0x3d,
  0x6e, 0x9b, 0xb4, 0xbe, 0x7f, 0xca, 0x62, 0xbe, 0x13, 0x45, 0xb4, 0xbe,
  0x00, 0x5d, 0xed, 0x3e, 0xcc, 0x8a, 0xe0, 0xbd, 0xc8, 0x96, 0xd6, 0x3d,
  0x4e, 0x97, 0x6d, 0xbd, 0x4d, 0xf6, 0x82, 0xbe, 0xce, 0x0d, 0xfe, 0xbd,
  0x7b, 0x02, 0x40, 0xbf, 0x76, 0x76, 0xe0, 0xbd, 0xf8, 0x2b, 0xb9, 0x3e,
  0x8d, 0xff, 0xa8, 0xbc, 0x8d, 0x3c, 0x56, 0xbc, 0xe0, 0x9e, 0x86, 0xbe,
  0xec, 0x04, 0xcd, 0x3e, 0xa8, 0xac, 0x3e, 0x3d, 0x18, 0x58, 0x0d, 0x3f,
  0x28, 0x73, 0x18, 0x3e, 0xe3, 0x50, 0x14, 0xbe, 0x05, 0xff, 0xd2, 0x3d,
  0x3d, 0xea, 0xef, 0xbb, 0x6d, 0xa7, 0xda, 0xbe, 0xaa, 0xc5, 0x24, 0xbe,
  0xe1, 0xc5, 0x58, 0x3e, 0x77, 0x49, 0xb6, 0x3d, 0x70, 0xdb, 0x81, 0xbe,
  0x13, 0x0a, 0x47, 0x3d, 0x48, 0xb0, 0x25, 0x3d, 0x87, 0xff, 0x19, 0xbf,
  0x52, 0xfe, 0x30, 0xbe, 0x4f, 0x81, 0x12, 0x3d, 0x03, 0xd0, 0xed, 0x3e,
  0xf7, 0x9d, 0x86, 0xbd, 0x6d, 0x95, 0x69, 0x3c, 0xa0, 0xfc, 0x11, 0x3e,
  0xd5, 0x01, 0x80, 0x3e, 0xaf, 0xa0, 0x03, 0x3d, 0xf2, 0x57, 0x1a, 0xbf,
  0x7e, 0xb3, 0x07, 0xbd, 0x1c, 0xb2, 0xe4, 0x3e, 0xae, 0x22, 0x0b, 0x3f,
  0x88, 0x89, 0x07, 0x3f, 0xa6, 0x9c, 0xa8, 0xbe, 0xd2, 0x0c, 0x82, 0xbd,
  0x66, 0x9c, 0x39, 0xbe, 0x67, 0x64, 0xaa, 0x3d, 0x81, 0x6c, 0x32, 0xbe,
  0x4e, 0x2c, 0x62, 0xbf, 0x41, 0x6d, 0x3e, 0xbd, 0x49, 0xa7, 0x49, 0xbe,
  0x9e, 0xd4, 0x27, 0x3e, 0x68, 0x3d, 0xff, 0xbe, 0x14, 0xbe, 0xca, 0xbe,
  0x8e, 0xfa, 0xe1, 0xbe, 0x52, 0x94, 0xf6, 0x3e, 0xc6, 0x0f, 0x28, 0x3e,
  0x8e, 0xf0, 0x44, 0xbe, 0x73, 0x36, 0x93, 0x3d, 0x97, 0xd5, 0x88, 0xbe,
  0x5e, 0x51, 0x4a, 0xbe, 0x82, 0x26, 0x5d, 0xbe, 0xcd, 0x16, 0x59, 0x3d,
  0x93, 0x37, 0xa9, 0xbc, 0xfb, 0x5c, 0x02, 0x3d, 0x04, 0x9f, 0x80, 0x3e,
  0x7f, 0xaf, 0xea, 0xbe, 0x26, 0xc6, 0x4d, 0x3d, 0x60, 0x06, 0x89, 0x3e,
  0x4c, 0x48, 0x89, 0x3e, 0x49, 0x18, 0x03, 0xbf, 0xb1, 0xed, 0xab, 0xbe,
  0x0d, 0x4e, 0x94, 0x3e, 0x82, 0x3f, 0xae, 0xbe, 0x16, 0x89, 0x73, 0xbf,
  0x25, 0x8a, 0xa6, 0xbc, 0x43, 0x38, 0xba, 0xbe, 0xa9, 0xde, 0x9f, 0x3e,
  0x51, 0xa2, 0x35, 0x3e, 0x11, 0x31, 0xa2, 0x3c, 0xe2, 0x57, 0xac, 0x3d,
  0xea, 0xc8, 0x4e, 0xbf, 0x75, 0xaa, 0x07, 0xbe, 0x45, 0x57, 0x61, 0xbe,
  0x51, 0xe0, 0x92, 0xbd, 0xfb, 0x80, 0xfc, 0x3d, 0x99, 0xd7, 0x2f, 0x3e,
  0x78, 0x99, 0x4e, 0x3e, 0x7d, 0x12, 0x6c, 0x3e, 0xf2, 0x4d, 0x22, 0x3e,
  0x5e, 0x03, 0x7b, 0xbd, 0x8f, 0xd1, 0xd5, 0x3e, 0x6d, 0xf4, 0x59, 0x3e,
  0xee, 0xd1, 0xd8, 0x3c, 0x05, 0x04, 0x97, 0x3e, 0xa0, 0x2b, 0xc4, 0xbe,
  0x05, 0x61, 0x34, 0xbe, 0x0a, 0xb7, 0x9c, 0xbe, 0x80, 0xba, 0xa5, 0xbe,
  0xce, 0x43, 0xba, 0x3d, 0xfd, 0x8b, 0x5a, 0xbe, 0x3b, 0xf2, 0x5d, 0xbf,
  0x3c, 0xa4, 0xc4, 0x3d, 0xc0, 0x34, 0xc6, 0xbd, 0xb4, 0x53, 0x03, 0x3e,
  0xda, 0xfa, 0xe4, 0xbd, 0xc4, 0xd3, 0xd5, 0xbd, 0x7f, 0x35, 0x99, 0xbd,
  0xdd, 0x1a, 0x2f, 0x3e, 0xc6, 0xec, 0xc4, 0x3e, 0xf6, 0x1c, 0x4e, 0x3e,
  0x33, 0xcb, 0xa0, 0x3e, 0x3d, 0x30, 0xb2, 0x3e, 0x08, 0x46, 0x9a, 0xbe,
  0x58, 0x15, 0x7d, 0x3d, 0x9b, 0x46, 0x0b, 0x3d, 0x20, 0x4e, 0x3f, 0x3e,
  0xe7, 0x86, 0xdd, 0xbe, 0x4d, 0x33, 0xe4, 0xbe, 0xb0, 0xbe, 0x65, 0x3e,
  0x1d, 0x8f, 0x2b, 0xbf, 0x54, 0x79, 0x9e, 0x3e, 0x60, 0x9f, 0x28, 0x3f,
  0xe4, 0x3c, 0x46, 0xbb, 0x95, 0x45, 0x8c, 0xbe, 0xd1, 0xb5, 0x00, 0x3e,
  0xa0, 0xae, 0x94, 0x3b, 0xfe, 0x23, 0x86, 0x3e, 0x27, 0x7a, 0xd7, 0x3d,
  0xf1, 0x5d, 0xb2, 0xbe, 0x64, 0xb3, 0xa7, 0x3e, 0xa9, 0x5c, 0xac, 0xbd,
  0x69, 0xaa, 0xab, 0x3d, 0xd1, 0x61, 0x7f, 0xbe, 0xc8, 0x03, 0xb0, 0x3e,
  0x16, 0xbe, 0x23, 0x3e, 0xe0, 0xdf, 0x33, 0xbe, 0xcf, 0x1c, 0x5d, 0x3e,
  0x42, 0xff, 0x32, 0xbe, 0x35, 0xbb, 0xee, 0xbd, 0x97, 0x38, 0x4f, 0x3e,
  0x69, 0xb0, 0x1e, 0xbd, 0x1a, 0x45, 0x4b, 0x3e, 0x57, 0x1d, 0x1a, 0x3e,
  0xb4, 0x5a, 0x3f, 0x3d, 0xc7, 0x3f, 0x6a, 0xbe, 0x07, 0xe5, 0x79, 0xbc,
  0x47, 0x41, 0xa7, 0xbd, 0x72, 0x9e, 0x0c, 0x3f, 0x2e, 0x57, 0x06, 0xbd,
  0x36, 0x3a, 0xfc, 0xbe, 0xe9, 0x7c, 0x48, 0x3f, 0xbf, 0x5f, 0xab, 0x3e,
  0xb3, 0x2e, 0x84, 0xbe, 0x0e, 0x95, 0x01, 0x3e, 0x09, 0x3c, 0x39, 0xbd,
  0x45, 0x97, 0xbc, 0x3b, 0x56, 0xef, 0x82, 0xbf, 0xe3, 0xb3, 0xff, 0x3d,
  0xd4, 0x9d, 0xe0, 0x3e, 0xf9, 0x96, 0xda, 0x3e, 0xad, 0x82, 0x7c, 0x3d,
  0x34, 0x05, 0x29, 0x3e, 0xc7, 0xcc, 0xc4, 0xbe, 0xad, 0x56, 0x48, 0x3e,
  0xc8, 0x4f, 0x2c, 0x3d, 0x1b, 0x72, 0x62, 0xbe, 0x51, 0x5e, 0xbe, 0xbd,
  0x77, 0x63, 0xb1, 0x3e, 0x9c, 0xea, 0xcb, 0x3e, 0x5a, 0xba, 0x85, 0xbf,
  0x15, 0xf7, 0x70, 0x3e, 0x70, 0xf7, 0x46, 0xbf, 0x83, 0x6b, 0x13, 0xbf,
  0x2a, 0xef, 0x83, 0xbb, 0xa1, 0x68, 0x2b, 0x3f, 0xc4, 0x0e, 0x9a, 0x3e,
  0xd3, 0x52, 0x39, 0xbf, 0xd3, 0x0b, 0x3e, 0xbd, 0x70, 0xac, 0xae, 0x3e,
  0xc2, 0xf5, 0xa8, 0x3c, 0xaa, 0xbf, 0xa4, 0xbe, 0x4e, 0x20, 0xf4, 0xbe,
  0xe3, 0xf2, 0xcb, 0xbd, 0x9b, 0x47, 0xac, 0xbe, 0x48, 0xba, 0xbb, 0xbe,
  0x8d, 0x68, 0x9d, 0x3d, 0xc0, 0x92, 0x30, 0x3e, 0x0c, 0x20, 0xe4, 0x3e,
  0x06, 0x00, 0x2e, 0xbf, 0xd4, 0x1a, 0xa4, 0x3d, 0xc9, 0x6e, 0xfe, 0xbd,
  0x98, 0x81, 0xe3, 0x3e, 0x87, 0x6b, 0x31, 0xbe, 0xe3, 0xc5, 0x18, 0xbd,
  0x17, 0x5e, 0x6d, 0x3d, 0x07, 0xf4, 0x85, 0x3e, 0xf6, 0x88, 0x96, 0xbd,
  0x5d, 0x96, 0x90, 0xbd, 0x63, 0x92, 0x98, 0x3e, 0x9d, 0x8f, 0xac, 0x3d,
  0x5d, 0x6b, 0x82, 0x3e, 0x68, 0xb7, 0x11, 0x3d, 0x41, 0xc7, 0xe8, 0xbd,
  0x82, 0x61, 0x5d, 0xbf, 0x8a, 0x10, 0x86, 0xbf, 0xac, 0xf3, 0x82, 0x3e,
  0xd8, 0xd1, 0x74, 0xbe, 0x92, 0xc0, 0x5c, 0xbe, 0x93, 0x3c, 0x8c, 0x3e,
  0x97, 0x94, 0x42, 0x3f, 0x4e, 0x35, 0xfa, 0x3d, 0x8b, 0x38, 0x4d, 0xbe,
  0x9f, 0x8c, 0x0b, 0x3e, 0xda, 0x1c, 0x33, 0xbd, 0xdf, 0x47, 0x64, 0x3e,
  0xf5, 0x8f, 0xea, 0x3d, 0x52, 0x82, 0xab, 0xbf, 0x2c, 0x88, 0xc2, 0x3e,
  0x0c, 0x7a, 0x76, 0xbe, 0x7e, 0xe7, 0xf1, 0xbb, 0x9b, 0x8f, 0xad, 0x3d,
  0xfb, 0x22, 0x3b, 0x3e, 0xd5, 0x85, 0x9b, 0x3e, 0x65, 0xf4, 0x7b, 0xbe,
  0xc3, 0xc7, 0x18, 0xbf, 0x02, 0xe9, 0x39, 0x3e, 0x80, 0x00, 0x05, 0xbe,
  0xdd, 0x69, 0x27, 0x3e, 0x86, 0xe9, 0x55, 0x3d, 0xf9, 0x37, 0xc3, 0x3e,
  0x29, 0xab, 0x06, 0xbe, 0x15, 0x30, 0xb7, 0x3e, 0x3a, 0x4b, 0xea, 0xbf,
  0x2d, 0x27, 0xb2, 0x3e, 0x92, 0xd0, 0x26, 0x3e, 0xff, 0xc6, 0x9a, 0x3e,
  0xf3, 0x74, 0xde, 0x3e, 0x83, 0xc6, 0x0e, 0x3e, 0xad, 0x28, 0x79, 0x3c,
  0xcc, 0x11, 0xa8, 0x3e, 0x63, 0xb1, 0x53, 0x3e, 0xb4, 0xaa, 0xd0, 0x3d,
  0x91, 0x2e, 0x87, 0xbe, 0x44, 0xd3, 0x44, 0xbe, 0x4b, 0x19, 0xd8, 0x3e,
  0x3f, 0x9f, 0x50, 0xbf, 0xb8, 0xb5, 0xae, 0xbc, 0x81, 0x71, 0xca, 0x3e,
  0x2a, 0x9f, 0x8b, 0xbe, 0x2f, 0x79, 0x91, 0xbd, 0x85, 0xf1, 0x3b, 0x3e,
  0x7c, 0xd0, 0x51, 0xbe, 0x36, 0x21, 0x02, 0xbe, 0x65, 0xb1, 0x50, 0xbe,
  0xbc, 0xa0, 0x7a, 0x3d, 0x11, 0x87, 0x04, 0x3f, 0x72, 0xfd, 0x59, 0xbe,
  0x94, 0x7f, 0xa1, 0x3e, 0x73, 0x59, 0x1c, 0xbe, 0x42, 0x15, 0xa3, 0x3e,
  0xf3, 0x71, 0xe9, 0x3d, 0x9b, 0x27, 0xfe, 0x3c, 0xf8, 0x3d, 0x4e, 0xbe,
  0x60, 0x97, 0xe3, 0x3d, 0x86, 0x27, 0x34, 0xbf, 0x91, 0x8d, 0xd4, 0xbe,
  0x17, 0x1e, 0x02, 0x3f, 0x19, 0x45, 0x10, 0xbf, 0x4e, 0xfd, 0xe7, 0x3c,
  0x4f, 0x39, 0x12, 0x3f, 0x36, 0x43, 0x36, 0x3f, 0xfc, 0x48, 0x28, 0xbe,
  0x0f, 0x72, 0x4b, 0xbf, 0x34, 0x58, 0x05, 0xbf, 0xa2, 0x05, 0x9a, 0x3e,
  0x28, 0xcb, 0x27, 0xbe, 0xec, 0x5d, 0xc4, 0xbd, 0x9f, 0x07, 0x53, 0xbe,
  0x90, 0x98, 0x37, 0x3e, 0x39, 0xb5, 0x14, 0xbf, 0x58, 0xc4, 0x8e, 0xbe,
  0x1a, 0xd2, 0x69, 0x3c, 0x89, 0x92, 0x82, 0x3e, 0xca, 0x8b, 0x70, 0x3e,
  0xaf, 0x6f, 0x0e, 0xbe, 0x8f, 0xc3, 0x5f, 0xbe, 0x8c, 0xfe, 0xcf, 0xbd,
  0x99, 0x2e, 0xab, 0x3c, 0x44, 0x7d, 0x53, 0xbe, 0xf0, 0xe6, 0x11, 0xbf,
  0x02, 0xc8, 0x7d, 0x3e, 0x47, 0xa8, 0x42, 0xbf, 0xad, 0x2b, 0x66, 0x3d,
  0x6a, 0x89, 0xc2, 0x3e, 0x9b, 0x1d, 0x05, 0x3f, 0x57, 0xe2, 0xc1, 0x3e,
  0xf7, 0x60, 0x54, 0xbe, 0x5d, 0x56, 0x31, 0xbf, 0xc9, 0x58, 0x18, 0xbe,
  0x3c, 0x83, 0x87, 0x3e, 0x4f, 0xff, 0xa0, 0x3e, 0x0c, 0xeb, 0x87, 0xbf,
  0xf4, 0x55, 0x03, 0x3d, 0x6d, 0xba, 0xc9, 0x3e, 0x5b, 0xb2, 0xd7, 0xbe,
  0x05, 0x10, 0x11, 0x3e, 0xa0, 0x25, 0xc6, 0x3e, 0xd2, 0x71, 0x4c, 0x3e,
  0xbe, 0xbf, 0x67, 0xbd, 0xec, 0xb6, 0xcc, 0xbe, 0xca, 0xb1, 0x15, 0x3f,
  0x8a, 0x9d, 0x8b, 0x3e, 0x09, 0x15, 0x3c, 0xbf, 0xbc, 0x64, 0xbe, 0x3e,
  0x91, 0x97, 0x69, 0xbd, 0x61, 0x6c, 0x40, 0x3c, 0xba, 0xea, 0x9d, 0xbf,
  0xda, 0x35, 0xae, 0xbe, 0x0a, 0x13, 0x9d, 0xbe, 0xe4, 0x06, 0x37, 0x3e,
  0x20, 0x5d, 0xbc, 0xbc, 0x7c, 0x60, 0x94, 0x3e, 0x76, 0xe7, 0xe7, 0xbe,
  0x8f, 0xca, 0xc6, 0x3d, 0x5a, 0xdb, 0xc2, 0xbd, 0xc3, 0x6c, 0xc6, 0xbf,
  0x92, 0x70, 0x8a, 0xbf, 0xbd, 0xc1, 0x49, 0x3e, 0xd0, 0x73, 0xf8, 0xbc,
  0x8a, 0x74, 0x1a, 0x3e, 0xf3, 0x7b, 0xec, 0xbe, 0xd5, 0x77, 0x84, 0x3d,
  0x35, 0x26, 0x24, 0xbd, 0x54, 0x42, 0x90, 0x3d, 0xfe, 0xfa, 0xff, 0xff,
  0x04, 0x00, 0x00, 0x00, 0xc0, 0x03, 0x00, 0x00, 0x16, 0x16, 0x76, 0x3e,
  0x7c, 0x56, 0xb3, 0xbd, 0xb4, 0x45, 0xc1, 0x3e, 0x3f, 0xcd, 0x43, 0xbf,
  0x04, 0x51, 0x5b, 0x3e, 0x7c, 0x80, 0x56, 0xbc, 0x48, 0xd4, 0xcf, 0x3e,
  0xb8, 0x04, 0x02, 0xbf, 0xa4, 0x20, 0xb4, 0xbe, 0xc3, 0xf2, 0x8c, 0xbe,
  0x04, 0x85, 0x0a, 0xbe, 0x55, 0xb2, 0xe6, 0xbc, 0xd7, 0xc0, 0x42, 0x3f,
  0xd4, 0x0f, 0x60, 0xbe, 0x6d, 0xfa, 0x41, 0x3d, 0xc3, 0x63, 0x31, 0xbf,
  0x35, 0xdc, 0x5f, 0xbf, 0x92, 0x0a, 0xea, 0x3d, 0xf8, 0x09, 0xa6, 0x3d,
  0x4a, 0xf6, 0x7e, 0xbe, 0xbb, 0x78, 0x84, 0x3e, 0x1e, 0xfb, 0xcc, 0xbe,
  0x73, 0x77, 0x84, 0x3e, 0x59, 0x75, 0x07, 0xbf, 0x5c, 0xc5, 0x5e, 0xbe,
  0x38, 0xb8, 0xc8, 0xbe, 0xf4, 0xee, 0x1e, 0xbf, 0xf4, 0xa8, 0x86, 0x3f,
  0xa9, 0xc8, 0x3a, 0xbe, 0xbd, 0x76, 0x6e, 0xbf, 0x75, 0x46, 0x64, 0x3e,
  0x83, 0x76, 0xb8, 0xbe, 0x1a, 0x03, 0xc0, 0xbe, 0x60, 0x5e, 0x42, 0xbe,
  0x7e, 0x80, 0x93, 0xbf, 0x51, 0x63, 0x03, 0x3f, 0xbd, 0x11, 0x25, 0x3d,
  0xcb, 0xd8, 0x46, 0x3f, 0xc5, 0x3e, 0xbd, 0x3e, 0xf2, 0x6a, 0x38, 0x3e,
  0xf1, 0x63, 0x9f, 0xbe, 0x55, 0x8b, 0x92, 0x3e, 0x28, 0x45, 0x1d, 0xbf,
  0xb7, 0xf3, 0x1c, 0xbe, 0xfa, 0xbf, 0x8d, 0xbe, 0x92, 0xb0, 0xf4, 0xbe,
  0xb0, 0x68, 0xd5, 0x3e, 0xe7, 0x1b, 0x46, 0x3f, 0x30, 0x3a, 0x73, 0x3e,
  0xcf, 0x8b, 0xd5, 0x3e, 0x0c, 0xe4, 0x91, 0xbe, 0xbc, 0x76, 0xbd, 0x3e,
  0x57, 0xba, 0xf5, 0x3e, 0x2c, 0x39, 0x70, 0x3e, 0xea, 0x10, 0x90, 0xbe,
  0xd6, 0x19, 0x43, 0xbe, 0x1f, 0xc8, 0xc3, 0xbe, 0x91, 0x5e, 0xdb, 0x3e,
  0x37, 0xc7, 0x52, 0x3e, 0x29, 0x7b, 0x1c, 0x3f, 0x2c, 0xfc, 0x23, 0x3e,
  0xe6, 0x35, 0x1e, 0xbf, 0x1b, 0x6a, 0x04, 0xbe, 0x15, 0xfb, 0x3d, 0x3e,
  0xd7, 0xc9, 0xa2, 0x3e, 0x59, 0x6c, 0xc1, 0xbf, 0x68, 0x8b, 0x89, 0x3e,
  0xb3, 0x26, 0x60, 0xbf, 0x0a, 0x07, 0x46, 0xbe, 0x6c, 0x24, 0x0e, 0x3f,
  0x8c, 0x4d, 0xeb, 0x3e, 0x1d, 0xb2, 0xbe, 0xbd, 0x89, 0xb2, 0x39, 0xbf,
  0xca, 0x94, 0xab, 0xbe, 0x24, 0x55, 0xb0, 0xbe, 0x5b, 0xee, 0x25, 0x3d,
  0x9c, 0x56, 0x40, 0xbe, 0xbb, 0xf1, 0xa9, 0xbf, 0x0f, 0x9c, 0x4b, 0xbf,
  0xc5, 0x13, 0xcc, 0x3d, 0x52, 0xe7, 0xd4, 0x3e, 0xbf, 0x2d, 0x3f, 0x3f,
  0xac, 0xa1, 0x01, 0x3e, 0xb8, 0x4c, 0x60, 0xbf, 0x41, 0x67, 0x21, 0xbd,
  0x95, 0x7a, 0x68, 0xbe, 0xbe, 0xa5, 0x4f, 0x3e, 0x3b, 0x6f, 0x69, 0x3d,
  0x2e, 0x1f, 0x73, 0x3f, 0xaf, 0xc4, 0x28, 0x3e, 0x2a, 0xc1, 0x0f, 0xbe,
  0x4d, 0xb6, 0x93, 0x3e, 0x57, 0x54, 0xea, 0x3e, 0xea, 0x63, 0x36, 0x3f,
  0x6f, 0xa2, 0xf9, 0x3e, 0x77, 0x6e, 0xec, 0x3e, 0x0a, 0x82, 0x13, 0x3e,
  0x24, 0xec, 0x34, 0xbf, 0x8a, 0x1e, 0xf2, 0xbe, 0xf5, 0xb8, 0x3f, 0xbe,
  0x94, 0x14, 0xe2, 0xbe, 0x93, 0x7c, 0x9c, 0x3e, 0x0f, 0x2e, 0x48, 0xbe,
  0xd4, 0x70, 0x0a, 0x3e, 0xc2, 0x62, 0xf9, 0x3e, 0xca, 0x84, 0x4b, 0xbf,
  0x9d, 0x10, 0x30, 0xbf, 0xd8, 0xad, 0xca, 0x3e, 0x6f, 0x76, 0xc8, 0xbe,
  0x33, 0xab, 0x18, 0x3f, 0x56, 0x49, 0x41, 0x3f, 0x01, 0x38, 0x8a, 0xbe,
  0x73, 0x52, 0xf1, 0xbe, 0xab, 0x83, 0x6d, 0xbe, 0xfa, 0xd7, 0xc4, 0xbb,
  0x1b, 0x1d, 0xfb, 0xbe, 0x99, 0x12, 0xf4, 0xbe, 0x8f, 0x36, 0xf0, 0xbe,
  0x8c, 0x18, 0x09, 0x3f, 0x70, 0x7a, 0xde, 0x3e, 0x8d, 0x2d, 0x0e, 0xbf,
  0xa7, 0xa6, 0x47, 0x3f, 0xb9, 0x59, 0x8f, 0x3e, 0xd6, 0x90, 0x8a, 0x3e,
  0x91, 0xa8, 0x00, 0xbd, 0x2f, 0x4c, 0xd7, 0xbd, 0x51, 0x2c, 0x26, 0x3f,
  0x89, 0x7f, 0xe7, 0x3e, 0x01, 0x52, 0xe5, 0xbe, 0x3d, 0x09, 0x17, 0xbe,
  0xbf, 0xf1, 0x0e, 0xbe, 0x04, 0xf2, 0xce, 0x3e, 0xb4, 0x31, 0x00, 0xbf,
  0xc8, 0x0c, 0xae, 0xbe, 0xfb, 0x2a, 0x4a, 0xbf, 0xb6, 0x30, 0x02, 0xbf,
  0xec, 0xa6, 0x1d, 0xbf, 0x03, 0x39, 0x42, 0x3e, 0x4d, 0xb8, 0x4e, 0x3f,
  0x0e, 0x09, 0xed, 0x3e, 0x0a, 0x2d, 0x92, 0xbf, 0xb2, 0x6d, 0x56, 0xbf,
  0x59, 0x9b, 0x8a, 0xbe, 0x45, 0x74, 0xef, 0xbe, 0x7a, 0x8e, 0x33, 0xbc,
  0x04, 0xd6, 0xe3, 0x3e, 0x56, 0x22, 0x1b, 0x3f, 0x4f, 0xd0, 0x9f, 0xbf,
  0xd8, 0xbe, 0x4a, 0xbe, 0x15, 0x3e, 0xcc, 0xbc, 0xfd, 0x18, 0x90, 0x3e,
  0xb2, 0x0a, 0x24, 0xbf, 0x8a, 0x7d, 0x29, 0x3f, 0xc1, 0x44, 0x40, 0x3e,
  0xcb, 0x53, 0x6d, 0xbf, 0x19, 0x36, 0x89, 0xbf, 0xb6, 0x44, 0xd3, 0x3e,
  0x5c, 0x39, 0xd8, 0xbe, 0x11, 0x46, 0x83, 0xbf, 0xbe, 0xaa, 0x62, 0xbe,
  0x72, 0x70, 0xe0, 0x3c, 0xbf, 0xbe, 0x81, 0x3d, 0xe2, 0x6e, 0xc9, 0xbe,
  0x7d, 0xea, 0x20, 0x3f, 0x4d, 0x5d, 0x49, 0xbf, 0x04, 0x65, 0x9a, 0xbe,
  0xe3, 0xa2, 0x18, 0xbf, 0x37, 0x77, 0x01, 0xbf, 0x58, 0x50, 0xcc, 0x3e,
  0xf1, 0x98, 0x6a, 0xbe, 0x7f, 0x37, 0x94, 0xbe, 0x88, 0xfd, 0x3c, 0xbe,
  0xe5, 0x54, 0xdc, 0x3e, 0x9a, 0x74, 0x37, 0x3f, 0xcc, 0xeb, 0x19, 0xbf,
  0xcd, 0xaf, 0xb1, 0x3c, 0x6a, 0x55, 0x2b, 0xbf, 0x4e, 0x2e, 0x57, 0xbf,
  0x6b, 0x5f, 0xd7, 0x3e, 0x83, 0x54, 0x05, 0x3e, 0x89, 0x25, 0xa1, 0xbf,
  0x61, 0x5c, 0x0d, 0xbf, 0xa9, 0x42, 0xaf, 0x3e, 0x1f, 0x43, 0x68, 0x3f,
  0x4b, 0x7c, 0x79, 0x3e, 0x23, 0x83, 0x4c, 0xbe, 0x55, 0x44, 0x8e, 0x3d,
  0x6c, 0xb4, 0x19, 0x3e, 0x7e, 0xfe, 0x3e, 0xbe, 0x73, 0x17, 0x1a, 0x3e,
  0x01, 0x87, 0x25, 0x3d, 0xb0, 0x84, 0x23, 0xbf, 0x43, 0xbb, 0x78, 0x3e,
  0x37, 0x8b, 0x33, 0xbf, 0x45, 0x86, 0xee, 0x3e, 0x68, 0x7f, 0xfd, 0xbe,
  0x63, 0x5f, 0x20, 0xbf, 0x43, 0xda, 0xb0, 0x3d, 0xa5, 0xa0, 0x84, 0x3e,
  0xe2, 0x89, 0x27, 0x3f, 0x7c, 0x23, 0x23, 0x3d, 0xad, 0x49, 0x06, 0x3f,
  0xe8, 0x2f, 0x56, 0xbd, 0x19, 0x76, 0x1c, 0xbf, 0x2f, 0x8e, 0xb4, 0xbf,
  0x7d, 0x8a, 0x49, 0xbf, 0xf6, 0xfa, 0xdb, 0xbe, 0xf8, 0xd5, 0x92, 0xbf,
  0x5b, 0xc4, 0x1d, 0xbf, 0x07, 0x50, 0x2a, 0x3d, 0x9c, 0x44, 0x32, 0x3f,
  0x2f, 0x1f, 0xd5, 0x3e, 0xd8, 0x19, 0x07, 0x3f, 0x31, 0x22, 0x49, 0xbe,
  0x76, 0x68, 0x77, 0xbf, 0xa6, 0xe3, 0xb2, 0x3e, 0xff, 0x6e, 0x95, 0x3e,
  0x9c, 0xe4, 0x2a, 0x3f, 0xb3, 0x75, 0x57, 0x3e, 0x5e, 0xae, 0xe2, 0x3e,
  0x52, 0x63, 0x8a, 0x3e, 0x56, 0x52, 0x0d, 0xbc, 0xd2, 0x49, 0x37, 0xbe,
  0x35, 0x32, 0x9b, 0xbe, 0xc4, 0x96, 0xd2, 0xbe, 0x71, 0xbc, 0xae, 0x3e,
  0x97, 0xef, 0xa6, 0x3f, 0x3f, 0x9b, 0x7c, 0x3c, 0xd3, 0xfc, 0xac, 0xbd,
  0x92, 0x05, 0xc8, 0xbe, 0x9a, 0x9e, 0x46, 0x3e, 0x8b, 0x71, 0xd8, 0xbd,
  0xff, 0xd7, 0xb1, 0x3e, 0x1f, 0x8a, 0xcb, 0xbe, 0x4a, 0x19, 0x1d, 0xbf,
  0xa6, 0x50, 0x90, 0xbe, 0xc5, 0x5e, 0x64, 0xbd, 0x53, 0x70, 0x28, 0xbe,
  0x34, 0x0a, 0x2f, 0xbc, 0x92, 0x15, 0x70, 0x3e, 0xca, 0xfe, 0xff, 0xff,
  0x04, 0x00, 0x00, 0x00, 0x28, 0x00, 0x00, 0x00, 0xc6, 0xb4, 0x03, 0xbc,
  0xd7, 0x39, 0x73, 0xbd, 0x24, 0xcb, 0x1d, 0xbf, 0x31, 0x12, 0x1f, 0xbe,
  0xea, 0x5d, 0x8f, 0x3e, 0x9b, 0x4f, 0xe9, 0x3e, 0x85, 0xc2, 0x7e, 0x3e,
  0x59, 0x58, 0x0d, 0x3e, 0x1d, 0xc0, 0x78, 0x3e, 0xb5, 0x91, 0x49, 0xbf,
  0xfe, 0xfe, 0xff, 0xff, 0x04, 0x00, 0x00, 0x00, 0x60, 0x00, 0x00, 0x00,
  0x21, 0x15, 0x9c, 0xbd, 0xbc, 0xba, 0xf6, 0x3d, 0x4c, 0x44, 0x96, 0x3e,
  0x82, 0xe2, 0xc6, 0x3e, 0x3d, 0xac, 0xca, 0x3d, 0xa5, 0x78, 0xac, 0x3e,
  0xa7, 0x4f, 0xf3, 0x3e, 0xb4, 0xd9, 0x8e, 0x3e, 0x4c, 0xd5, 0x50, 0x3f,
  0x94, 0x8f, 0x5c, 0x3f, 0x55, 0xb7, 0x2e, 0x3f, 0x6a, 0x07, 0x20, 0x3f,
  0xb7, 0x71, 0x42, 0xbf, 0xb4, 0x3e, 0x1f, 0x3f, 0x17, 0x48, 0x05, 0xbe,
  0x06, 0x7e, 0x5a, 0xbe, 0x57, 0xdf, 0x4e, 0xbf, 0x58, 0x88, 0xb5, 0x3e,
  0x05, 0xf2, 0x33, 0x3f, 0x10, 0x95, 0x5b, 0x3f, 0x06, 0x5d, 0xa6, 0x3e,
  0x1b, 0xfe, 0xc7, 0x3e, 0xa2, 0x84, 0x0f, 0x3f, 0x8a, 0x68, 0xd1, 0xbd,
  0x0c, 0xfa, 0xff, 0xff, 0x10, 0xfa, 0xff, 0xff, 0x0f, 0x00, 0x00, 0x00,
  0x4d, 0x4c, 0x49, 0x52, 0x20, 0x43, 0x6f, 0x6e, 0x76, 0x65, 0x72, 0x74,
  0x65, 0x64, 0x2e, 0x00, 0x01, 0x00, 0x00, 0x00, 0x14, 0x00, 0x00, 0x00,
  0x00, 0x00, 0x0e, 0x00, 0x18, 0x00, 0x14, 0x00, 0x10, 0x00, 0x0c, 0x00,
  0x08, 0x00, 0x04, 0x00, 0x0e, 0x00, 0x00, 0x00, 0x14, 0x00, 0x00, 0x00,
  0x1c, 0x00, 0x00, 0x00, 0x34, 0x01, 0x00, 0x00, 0x38, 0x01, 0x00, 0x00,
  0x3c, 0x01, 0x00, 0x00, 0x04, 0x00, 0x00, 0x00, 0x6d, 0x61, 0x69, 0x6e,
  0x00, 0x00, 0x00, 0x00, 0x04, 0x00, 0x00, 0x00, 0xdc, 0x00, 0x00, 0x00,
  0x94, 0x00, 0x00, 0x00, 0x50, 0x00, 0x00, 0x00, 0x14, 0x00, 0x00, 0x00,
  0x00, 0x00, 0x0e, 0x00, 0x1a, 0x00, 0x14, 0x00, 0x10, 0x00, 0x0c, 0x00,
  0x0b, 0x00, 0x04, 0x00, 0x0e, 0x00, 0x00, 0x00, 0x1c, 0x00, 0x00, 0x00,
  0x00, 0x00, 0x00, 0x09, 0x1c, 0x00, 0x00, 0x00, 0x20, 0x00, 0x00, 0x00,
  0x01, 0x00, 0x00, 0x00, 0x00, 0x00, 0x06, 0x00, 0x08, 0x00, 0x04, 0x00,
  0x06, 0x00, 0x00, 0x00, 0x00, 0x00, 0x80, 0x3f, 0x01, 0x00, 0x00, 0x00,
  0x0a, 0x00, 0x00, 0x00, 0x01, 0x00, 0x00, 0x00, 0x09, 0x00, 0x00, 0x00,
  0xce, 0xff, 0xff, 0xff, 0x10, 0x00, 0x00, 0x00, 0x00, 0x00, 0x00, 0x08,
  0x0c, 0x00, 0x00, 0x00, 0x10, 0x00, 0x00, 0x00, 0xd4, 0xfa, 0xff, 0xff,
  0x01, 0x00, 0x00, 0x00, 0x09, 0x00, 0x00, 0x00, 0x03, 0x00, 0x00, 0x00,
  0x08, 0x00, 0x00, 0x00, 0x03, 0x00, 0x00, 0x00, 0x02, 0x00, 0x00, 0x00,
  0x00, 0x00, 0x0e, 0x00, 0x14, 0x00, 0x00, 0x00, 0x10, 0x00, 0x0c, 0x00,
  0x0b, 0x00, 0x04, 0x00, 0x0e, 0x00, 0x00, 0x00, 0x10, 0x00, 0x00, 0x00,
  0x00, 0x00, 0x00, 0x08, 0x10, 0x00, 0x00, 0x00, 0x14, 0x00, 0x00, 0x00,
  0xba, 0xff, 0xff, 0xff, 0x00, 0x00, 0x00, 0x01, 0x01, 0x00, 0x00, 0x00,
  0x08, 0x00, 0x00, 0x00, 0x03, 0x00, 0x00, 0x00, 0x07, 0x00, 0x00, 0x00,
  0x04, 0x00, 0x00, 0x00, 0x01, 0x00, 0x00, 0x00, 0x00, 0x00, 0x0e, 0x00,
  0x16, 0x00, 0x00, 0x00, 0x10, 0x00, 0x0c, 0x00, 0x0b, 0x00, 0x04, 0x00,
  0x0e, 0x00, 0x00, 0x00, 0x18, 0x00, 0x00, 0x00, 0x00, 0x00, 0x00, 0x08,
  0x18, 0x00, 0x00, 0x00, 0x1c, 0x00, 0x00, 0x00, 0x00, 0x00, 0x06, 0x00,
  0x08, 0x00, 0x07, 0x00, 0x06, 0x00, 0x00, 0x00, 0x00, 0x00, 0x00, 0x01,
  0x01, 0x00, 0x00, 0x00, 0x07, 0x00, 0x00, 0x00, 0x03, 0x00, 0x00, 0x00,
  0x00, 0x00, 0x00, 0x00, 0x05, 0x00, 0x00, 0x00, 0x06, 0x00, 0x00, 0x00,
  0x01, 0x00, 0x00, 0x00, 0x0a, 0x00, 0x00, 0x00, 0x01, 0x00, 0x00, 0x00,
  0x00, 0x00, 0x00, 0x00, 0x0b, 0x00, 0x00, 0x00, 0x44, 0x04, 0x00, 0x00,
  0xc4, 0x03, 0x00, 0x00, 0x60, 0x03, 0x00, 0x00, 0x10, 0x03, 0x00, 0x00,
  0xc0, 0x02, 0x00, 0x00, 0x74, 0x02, 0x00, 0x00, 0x10, 0x02, 0x00, 0x00,
  0x7c, 0x01, 0x00, 0x00, 0xe0, 0x00, 0x00, 0x00, 0x60, 0x00, 0x00, 0x00,
  0x04, 0x00, 0x00, 0x00, 0xfe, 0xfb, 0xff, 0xff, 0x00, 0x00, 0x00, 0x01,
  0x14, 0x00, 0x00, 0x00, 0x1c, 0x00, 0x00, 0x00, 0x1c, 0x00, 0x00, 0x00,
  0x0b, 0x00, 0x00, 0x00, 0x34, 0x00, 0x00, 0x00, 0x02, 0x00, 0x00, 0x00,
  0xff, 0xff, 0xff, 0xff, 0x0a, 0x00, 0x00, 0x00, 0xe8, 0xfb, 0xff, 0xff,
  0x1b, 0x00, 0x00, 0x00, 0x53, 0x74, 0x61, 0x74, 0x65, 0x66, 0x75, 0x6c,
  0x50, 0x61, 0x72, 0x74, 0x69, 0x74, 0x69, 0x6f, 0x6e, 0x65, 0x64, 0x43,
  0x61, 0x6c, 0x6c, 0x5f, 0x31, 0x3a, 0x30, 0x00, 0x02, 0x00, 0x00, 0x00,
  0x01, 0x00, 0x00, 0x00, 0x0a, 0x00, 0x00, 0x00, 0x56, 0xfc, 0xff, 0xff,
  0x00, 0x00, 0x00, 0x01, 0x14, 0x00, 0x00, 0x00, 0x1c, 0x00, 0x00, 0x00,
  0x1c, 0x00, 0x00, 0x00, 0x0a, 0x00, 0x00, 0x00, 0x58, 0x00, 0x00, 0x00,
  0x02, 0x00, 0x00, 0x00, 0xff, 0xff, 0xff, 0xff, 0x0a, 0x00, 0x00, 0x00,
  0x40, 0xfc, 0xff, 0xff, 0x3c, 0x00, 0x00, 0x00, 0x73, 0x65, 0x71, 0x75,
  0x65, 0x6e, 0x74, 0x69, 0x61, 0x6c, 0x5f, 0x31, 0x2f, 0x64, 0x65, 0x6e,
  0x73, 0x65, 0x5f, 0x32, 0x5f, 0x31, 0x2f, 0x4d, 0x61, 0x74, 0x4d, 0x75,
  0x6c, 0x3b, 0x73, 0x65, 0x71, 0x75, 0x65, 0x6e, 0x74, 0x69, 0x61, 0x6c,
  0x5f, 0x31, 0x2f, 0x64, 0x65, 0x6e, 0x73, 0x65, 0x5f, 0x32, 0x5f, 0x31,
  0x2f, 0x42, 0x69, 0x61, 0x73, 0x41, 0x64, 0x64, 0x00, 0x00, 0x00, 0x00,
  0x02, 0x00, 0x00, 0x00, 0x01, 0x00, 0x00, 0x00, 0x0a, 0x00, 0x00, 0x00,
  0xd2, 0xfc, 0xff, 0xff, 0x00, 0x00, 0x00, 0x01, 0x14, 0x00, 0x00, 0x00,
  0x1c, 0x00, 0x00, 0x00, 0x1c, 0x00, 0x00, 0x00, 0x09, 0x00, 0x00, 0x00,
  0x74, 0x00, 0x00, 0x00, 0x02, 0x00, 0x00, 0x00, 0xff, 0xff, 0xff, 0xff,
  0x18, 0x00, 0x00, 0x00, 0xbc, 0xfc, 0xff, 0xff, 0x58, 0x00, 0x00, 0x00,
  0x73, 0x65, 0x71, 0x75, 0x65, 0x6e, 0x74, 0x69, 0x61, 0x6c, 0x5f, 0x31,
  0x2f, 0x64, 0x65, 0x6e, 0x73, 0x65, 0x5f, 0x31, 0x5f, 0x32, 0x2f, 0x4d,
  0x61, 0x74, 0x4d, 0x75, 0x6c, 0x3b, 0x73, 0x65, 0x71, 0x75, 0x65, 0x6e,
  0x74, 0x69, 0x61, 0x6c, 0x5f, 0x31, 0x2f, 0x64, 0x65, 0x6e, 0x73, 0x65,
  0x5f, 0x31, 0x5f, 0x32, 0x2f, 0x52, 0x65, 0x6c, 0x75, 0x3b, 0x73, 0x65,
  0x71, 0x75, 0x65, 0x6e, 0x74, 0x69, 0x61, 0x6c, 0x5f, 0x31, 0x2f, 0x64,
  0x65, 0x6e, 0x73, 0x65, 0x5f, 0x31, 0x5f, 0x32, 0x2f, 0x42, 0x69, 0x61,
  0x73, 0x41, 0x64, 0x64, 0x00, 0x00, 0x00, 0x00, 0x02, 0x00, 0x00, 0x00,
  0x01, 0x00, 0x00, 0x00, 0x18, 0x00, 0x00, 0x00, 0x6a, 0xfd, 0xff, 0xff,
  0x00, 0x00, 0x00, 0x01, 0x14, 0x00, 0x00, 0x00, 0x1c, 0x00, 0x00, 0x00,
  0x1c, 0x00, 0x00, 0x00, 0x08, 0x00, 0x00, 0x00, 0x6c, 0x00, 0x00, 0x00,
  0x02, 0x00, 0x00, 0x00, 0xff, 0xff, 0xff, 0xff, 0x30, 0x00, 0x00, 0x00,
  0x54, 0xfd, 0xff, 0xff, 0x52, 0x00, 0x00, 0x00, 0x73, 0x65, 0x71, 0x75,
  0x65, 0x6e, 0x74, 0x69, 0x61, 0x6c, 0x5f, 0x31, 0x2f, 0x64, 0x65, 0x6e,
  0x73, 0x65, 0x5f, 0x31, 0x2f, 0x4d, 0x61, 0x74, 0x4d, 0x75, 0x6c, 0x3b,
  0x73, 0x65, 0x71, 0x75, 0x65, 0x6e, 0x74, 0x69, 0x61, 0x6c, 0x5f, 0x31,
  0x2f, 0x64, 0x65, 0x6e, 0x73, 0x65, 0x5f, 0x31, 0x2f, 0x52, 0x65, 0x6c,
  0x75, 0x3b, 0x73, 0x65, 0x71, 0x75, 0x65, 0x6e, 0x74, 0x69, 0x61, 0x6c,
  0x5f, 0x31, 0x2f, 0x64, 0x65, 0x6e, 0x73, 0x65, 0x5f, 0x31, 0x2f, 0x42,
  0x69, 0x61, 0x73, 0x41, 0x64, 0x64, 0x00, 0x00, 0x02, 0x00, 0x00, 0x00,
  0x01, 0x00, 0x00, 0x00, 0x30, 0x00, 0x00, 0x00, 0x76, 0xfe, 0xff, 0xff,
  0x00, 0x00, 0x00, 0x01, 0x10, 0x00, 0x00, 0x00, 0x10, 0x00, 0x00, 0x00,
  0x07, 0x00, 0x00, 0x00, 0x44, 0x00, 0x00, 0x00, 0xd4, 0xfd, 0xff, 0xff,
  0x36, 0x00, 0x00, 0x00, 0x73, 0x65, 0x71, 0x75, 0x65, 0x6e, 0x74, 0x69,
  0x61, 0x6c, 0x5f, 0x31, 0x2f, 0x64, 0x65, 0x6e, 0x73, 0x65, 0x5f, 0x31,
  0x2f, 0x52, 0x65, 0x6c, 0x75, 0x3b, 0x73, 0x65, 0x71, 0x75, 0x65, 0x6e,
  0x74, 0x69, 0x61, 0x6c, 0x5f, 0x31, 0x2f, 0x64, 0x65, 0x6e, 0x73, 0x65,
  0x5f, 0x31, 0x2f, 0x42, 0x69, 0x61, 0x73, 0x41, 0x64, 0x64, 0x00, 0x00,
  0x01, 0x00, 0x00, 0x00, 0x30, 0x00, 0x00, 0x00, 0xd6, 0xfe, 0xff, 0xff,
  0x00, 0x00, 0x00, 0x01, 0x10, 0x00, 0x00, 0x00, 0x10, 0x00, 0x00, 0x00,
  0x06, 0x00, 0x00, 0x00, 0x28, 0x00, 0x00, 0x00, 0x34, 0xfe, 0xff, 0xff,
  0x1b, 0x00, 0x00, 0x00, 0x73, 0x65, 0x71, 0x75, 0x65, 0x6e, 0x74, 0x69,
  0x61, 0x6c, 0x5f, 0x31, 0x2f, 0x64, 0x65, 0x6e, 0x73, 0x65, 0x5f, 0x31,
  0x2f, 0x4d, 0x61, 0x74, 0x4d, 0x75, 0x6c, 0x00, 0x02, 0x00, 0x00, 0x00,
  0x30, 0x00, 0x00, 0x00, 0x1c, 0x00, 0x00, 0x00, 0x1e, 0xff, 0xff, 0xff,
  0x00, 0x00, 0x00, 0x01, 0x10, 0x00, 0x00, 0x00, 0x10, 0x00, 0x00, 0x00,
  0x05, 0x00, 0x00, 0x00, 0x2c, 0x00, 0x00, 0x00, 0x7c, 0xfe, 0xff, 0xff,
  0x1d, 0x00, 0x00, 0x00, 0x73, 0x65, 0x71, 0x75, 0x65, 0x6e, 0x74, 0x69,
  0x61, 0x6c, 0x5f, 0x31, 0x2f, 0x64, 0x65, 0x6e, 0x73, 0x65, 0x5f, 0x31,
  0x5f, 0x32, 0x2f, 0x4d, 0x61, 0x74, 0x4d, 0x75, 0x6c, 0x00, 0x00, 0x00,
  0x02, 0x00, 0x00, 0x00, 0x18, 0x00, 0x00, 0x00, 0x30, 0x00, 0x00, 0x00,
  0x6a, 0xff, 0xff, 0xff, 0x00, 0x00, 0x00, 0x01, 0x10, 0x00, 0x00, 0x00,
  0x10, 0x00, 0x00, 0x00, 0x04, 0x00, 0x00, 0x00, 0x2c, 0x00, 0x00, 0x00,
  0xc8, 0xfe, 0xff, 0xff, 0x1d, 0x00, 0x00, 0x00, 0x73, 0x65, 0x71, 0x75,
  0x65, 0x6e, 0x74, 0x69, 0x61, 0x6c, 0x5f, 0x31, 0x2f, 0x64, 0x65, 0x6e,
  0x73, 0x65, 0x5f, 0x32, 0x5f, 0x31, 0x2f, 0x4d, 0x61, 0x74, 0x4d, 0x75,
  0x6c, 0x00, 0x00, 0x00, 0x02, 0x00, 0x00, 0x00, 0x0a, 0x00, 0x00, 0x00,
  0x18, 0x00, 0x00, 0x00, 0xb6, 0xff, 0xff, 0xff, 0x00, 0x00, 0x00, 0x01,
  0x10, 0x00, 0x00, 0x00, 0x10, 0x00, 0x00, 0x00, 0x03, 0x00, 0x00, 0x00,
  0x2c, 0x00, 0x00, 0x00, 0x14, 0xff, 0xff, 0xff, 0x1e, 0x00, 0x00, 0x00,
  0x73, 0x65, 0x71, 0x75, 0x65, 0x6e, 0x74, 0x69, 0x61, 0x6c, 0x5f, 0x31,
  0x2f, 0x64, 0x65, 0x6e, 0x73, 0x65, 0x5f, 0x32, 0x5f, 0x31, 0x2f, 0x42,
  0x69, 0x61, 0x73, 0x41, 0x64, 0x64, 0x00, 0x00, 0x01, 0x00, 0x00, 0x00,
  0x0a, 0x00, 0x00, 0x00, 0x00, 0x00, 0x16, 0x00, 0x18, 0x00, 0x14, 0x00,
  0x00, 0x00, 0x10, 0x00, 0x0c, 0x00, 0x08, 0x00, 0x00, 0x00, 0x00, 0x00,
  0x00, 0x00, 0x07, 0x00, 0x16, 0x00, 0x00, 0x00, 0x00, 0x00, 0x00, 0x01,
  0x10, 0x00, 0x00, 0x00, 0x10, 0x00, 0x00, 0x00, 0x02, 0x00, 0x00, 0x00,
  0x48, 0x00, 0x00, 0x00, 0x74, 0xff, 0xff, 0xff, 0x3a, 0x00, 0x00, 0x00,
  0x73, 0x65, 0x71, 0x75, 0x65, 0x6e, 0x74, 0x69, 0x61, 0x6c, 0x5f, 0x31,
  0x2f, 0x64, 0x65, 0x6e, 0x73, 0x65, 0x5f, 0x31, 0x5f, 0x32, 0x2f, 0x52,
  0x65, 0x6c, 0x75, 0x3b, 0x73, 0x65, 0x71, 0x75, 0x65, 0x6e, 0x74, 0x69,
  0x61, 0x6c, 0x5f, 0x31, 0x2f, 0x64, 0x65, 0x6e, 0x73, 0x65, 0x5f, 0x31,
  0x5f, 0x32, 0x2f, 0x42, 0x69, 0x61, 0x73, 0x41, 0x64, 0x64, 0x00, 0x00,
  0x01, 0x00, 0x00, 0x00, 0x18, 0x00, 0x00, 0x00, 0x00, 0x00, 0x16, 0x00,
  0x1c, 0x00, 0x18, 0x00, 0x00, 0x00, 0x14, 0x00, 0x10, 0x00, 0x0c, 0x00,
  0x00, 0x00, 0x00, 0x00, 0x08, 0x00, 0x07, 0x00, 0x16, 0x00, 0x00, 0x00,
  0x00, 0x00, 0x00, 0x01, 0x14, 0x00, 0x00, 0x00, 0x20, 0x00, 0x00, 0x00,
  0x20, 0x00, 0x00, 0x00, 0x01, 0x00, 0x00, 0x00, 0x3c, 0x00, 0x00, 0x00,
  0x02, 0x00, 0x00, 0x00, 0xff, 0xff, 0xff, 0xff, 0x1c, 0x00, 0x00, 0x00,
  0x04, 0x00, 0x04, 0x00, 0x04, 0x00, 0x00, 0x00, 0x1d, 0x00, 0x00, 0x00,
  0x73, 0x65, 0x72, 0x76, 0x69, 0x6e, 0x67, 0x5f, 0x64, 0x65, 0x66, 0x61,
  0x75, 0x6c, 0x74, 0x5f, 0x69, 0x6e, 0x70, 0x75, 0x74, 0x5f, 0x6c, 0x61,
  0x79, 0x65, 0x72, 0x3a, 0x30, 0x00, 0x00, 0x00, 0x02, 0x00, 0x00, 0x00,
  0x01, 0x00, 0x00, 0x00, 0x1c, 0x00, 0x00, 0x00, 0x02, 0x00, 0x00, 0x00,
  0x20, 0x00, 0x00, 0x00, 0x04, 0x00, 0x00, 0x00, 0xf4, 0xff, 0xff, 0xff,
  0x19, 0x00, 0x00, 0x00, 0x00, 0x00, 0x00, 0x19, 0x0c, 0x00, 0x0c, 0x00,
  0x0b, 0x00, 0x00, 0x00, 0x00, 0x00, 0x04, 0x00, 0x0c, 0x00, 0x00, 0x00,
  0x09, 0x00, 0x00, 0x00, 0x00, 0x00, 0x00, 0x09,
};
